{
  "version": "1.0",
  "truncation": null,
  "padding": null,
  "added_tokens": [],
  "normalizer": {
    "type": "Lowercase"
  },
  "pre_tokenizer": {
    "type": "Whitespace"
  },
  "post_processor": null,
  "decoder": null,
  "model": {
    "type": "BPE",
    "dropout": null,
    "unk_token": null,
    "continuing_subword_prefix": null,
    "end_of_word_suffix": null,
    "fuse_unk": false,
    "byte_fallback": false,
    "vocab": {
      "\u0013": 0,
      "\u0014": 1,
      "\u0018": 2,
      "\u0019": 3,
      "\u001c": 4,
      "\u001d": 5,
      "\u001f": 6,
      "!": 7,
      "#": 8,
      "$": 9,
      "%": 10,
      "&": 11,
      "'": 12,
      "(": 13,
      ")": 14,
      "*": 15,
      "+": 16,
      ",": 17,
      "-": 18,
      ".": 19,
      "/": 20,
      "0": 21,
      "1": 22,
      "2": 23,
      "3": 24,
      "4": 25,
      "5": 26,
      "6": 27,
      "7": 28,
      "8": 29,
      "9": 30,
      ":": 31,
      ";": 32,
      "<": 33,
      "=": 34,
      ">": 35,
      "?": 36,
      "@": 37,
      "[": 38,
      "\\": 39,
      "]": 40,
      "^": 41,
      "_": 42,
      "`": 43,
      "a": 44,
      "b": 45,
      "c": 46,
      "d": 47,
      "e": 48,
      "f": 49,
      "g": 50,
      "h": 51,
      "i": 52,
      "j": 53,
      "k": 54,
      "l": 55,
      "m": 56,
      "n": 57,
      "o": 58,
      "p": 59,
      "q": 60,
      "r": 61,
      "s": 62,
      "t": 63,
      "u": 64,
      "v": 65,
      "w": 66,
      "x": 67,
      "y": 68,
      "z": 69,
      "{": 70,
      "|": 71,
      "}": 72,
      "~": 73,
      "": 74,
      "he": 75,
      "in": 76,
      "the": 77,
      "an": 78,
      "re": 79,
      "ou": 80,
      "ed": 81,
      "th": 82,
      "to": 83,
      "ing": 84,
      "at": 85,
      "on": 86,
      "er": 87,
      "as": 88,
      "and": 89,
      "is": 90,
      "en": 91,
      "ar": 92,
      "ll": 93,
      "it": 94,
      "or": 95,
      "st": 96,
      "me": 97,
      "of": 98,
      "le": 99,
      "``": 100,
      "''": 101,
      "be": 102,
      "ha": 103,
      "you": 104,
      "ow": 105,
      "se": 106,
      "id": 107,
      "ac": 108,
      "was": 109,
      "her": 110,
      "ve": 111,
      "ld": 112,
      "ro": 113,
      "she": 114,
      "gh": 115,
      "li": 116,
      "es": 117,
      "his": 118,
      "we": 119,
      "al": 120,
      "that": 121,
      "ly": 122,
      "hi": 123,
      "ay": 124,
      "wi": 125,
      "no": 126,
      "lo": 127,
      "ad": 128,
      "ut": 129,
      "my": 130,
      "all": 131,
      "ver": 132,
      "so": 133,
      "ke": 134,
      "for": 135,
      "ti": 136,
      "ri": 137,
      "ght": 138,
      "out": 139,
      "wh": 140,
      "ould": 141,
      "ch": 142,
      "ne": 143,
      "with": 144,
      "do": 145,
      "ir": 146,
      "un": 147,
      "mo": 148,
      "had": 149,
      "ce": 150,
      "co": 151,
      "sa": 152,
      "go": 153,
      "ge": 154,
      "fe": 155,
      "ent": 156,
      "ab": 157,
      "one": 158,
      "but": 159,
      "ur": 160,
      "him": 161,
      "sh": 162,
      "ok": 163,
      "up": 164,
      "red": 165,
      "ck": 166,
      "ther": 167,
      "de": 168,
      "ca": 169,
      "ter": 170,
      "ack": 171,
      "now": 172,
      "ra": 173,
      "te": 174,
      "thing": 175,
      "pe": 176,
      "oun": 177,
      "si": 178,
      "ant": 179,
      "what": 180,
      "not": 181,
      "if": 182,
      "whe": 183,
      "am": 184,
      "ain": 185,
      "us": 186,
      "od": 187,
      "ag": 188,
      "pp": 189,
      "rom": 190,
      "ust": 191,
      "have": 192,
      "said": 193,
      "way": 194,
      "they": 195,
      "ard": 196,
      "this": 197,
      "from": 198,
      "did": 199,
      "ound": 200,
      "are": 201,
      "con": 202,
      "some": 203,
      "ion": 204,
      "ind": 205,
      "own": 206,
      "fo": 207,
      "could": 208,
      "back": 209,
      "su": 210,
      "were": 211,
      "would": 212,
      "po": 213,
      "look": 214,
      "like": 215,
      "ted": 216,
      "man": 217,
      "mp": 218,
      "ill": 219,
      "ide": 220,
      "ry": 221,
      "ho": 222,
      "there": 223,
      "ough": 224,
      "wor": 225,
      "..": 226,
      "ss": 227,
      "know": 228,
      "mi": 229,
      "che": 230,
      "qu": 231,
      "just": 232,
      "bo": 233,
      "wo": 234,
      "pl": 235,
      "el": 236,
      "into": 237,
      "king": 238,
      "ex": 239,
      "ked": 240,
      "when": 241,
      "ru": 242,
      "ers": 243,
      "about": 244,
      "ace": 245,
      "la": 246,
      "any": 247,
      "ma": 248,
      "our": 249,
      "ever": 250,
      "hand": 251,
      "ally": 252,
      "then": 253,
      "see": 254,
      "yes": 255,
      "ic": 256,
      "ta": 257,
      "gr": 258,
      "get": 259,
      "them": 260,
      "want": 261,
      "your": 262,
      "over": 263,
      "time": 264,
      "led": 265,
      "et": 266,
      "end": 267,
      "sto": 268,
      "ate": 269,
      "lf": 270,
      "ast": 271,
      "ven": 272,
      "ong": 273,
      "been": 274,
      "ep": 275,
      "down": 276,
      "op": 277,
      "by": 278,
      "other": 279,
      "ni": 280,
      "ul": 281,
      "art": 282,
      "sp": 283,
      "head": 284,
      "fi": 285,
      "who": 286,
      "again": 287,
      "how": 288,
      "ment": 289,
      "urn": 290,
      "gu": 291,
      "ting": 292,
      "ous": 293,
      "more": 294,
      "ation": 295,
      "ink": 296,
      "fore": 297,
      "can": 298,
      "side": 299,
      "bl": 300,
      "nt": 301,
      "eyes": 302,
      "ine": 303,
      "than": 304,
      "tion": 305,
      "right": 306,
      "ull": 307,
      "pre": 308,
      "off": 309,
      "ist": 310,
      "ye": 311,
      "mb": 312,
      "af": 313,
      "turn": 314,
      "self": 315,
      "der": 316,
      "ought": 317,
      "new": 318,
      "pped": 319,
      "use": 320,
      "pro": 321,
      "thr": 322,
      "im": 323,
      "ess": 324,
      "per": 325,
      "om": 326,
      "hed": 327,
      "even": 328,
      "il": 329,
      "their": 330,
      "whi": 331,
      "rea": 332,
      "ved": 333,
      "na": 334,
      "br": 335,
      "arm": 336,
      "here": 337,
      "before": 338,
      "sc": 339,
      "mu": 340,
      "every": 341,
      "around": 342,
      "will": 343,
      "say": 344,
      "going": 345,
      "...": 346,
      "let": 347,
      "clo": 348,
      "vi": 349,
      "ving": 350,
      "able": 351,
      "di": 352,
      "ang": 353,
      "ct": 354,
      "day": 355,
      "tle": 356,
      "ga": 357,
      "ps": 358,
      "think": 359,
      "only": 360,
      "ade": 361,
      "where": 362,
      "through": 363,
      "gi": 364,
      "need": 365,
      "lit": 366,
      "too": 367,
      "wa": 368,
      "looked": 369,
      "ass": 370,
      "come": 371,
      "ty": 372,
      "ward": 373,
      "vo": 374,
      "room": 375,
      "face": 376,
      "gl": 377,
      "med": 378,
      "thought": 379,
      "ite": 380,
      "ick": 381,
      "read": 382,
      "should": 383,
      "away": 384,
      "still": 385,
      "after": 386,
      "long": 387,
      "ach": 388,
      "lt": 389,
      "com": 390,
      "door": 391,
      "ble": 392,
      "something": 393,
      "got": 394,
      "tr": 395,
      "well": 396,
      "sho": 397,
      "ure": 398,
      "never": 399,
      "cl": 400,
      "pa": 401,
      "ars": 402,
      "wat": 403,
      "act": 404,
      "good": 405,
      "fa": 406,
      "ten": 407,
      "jo": 408,
      "ity": 409,
      "ans": 410,
      "ree": 411,
      "beca": 412,
      "ated": 413,
      "its": 414,
      "ont": 415,
      "feel": 416,
      "light": 417,
      "asked": 418,
      "ened": 419,
      "night": 420,
      "fr": 421,
      "mar": 422,
      "sed": 423,
      "pr": 424,
      "low": 425,
      "two": 426,
      "bet": 427,
      "fir": 428,
      "ched": 429,
      "bed": 430,
      "tal": 431,
      "dis": 432,
      "ice": 433,
      "tell": 434,
      "ste": 435,
      "smi": 436,
      "made": 437,
      "ance": 438,
      "most": 439,
      "why": 440,
      "much": 441,
      "gre": 442,
      "ft": 443,
      "ig": 444,
      "car": 445,
      "ap": 446,
      "dd": 447,
      "because": 448,
      "sure": 449,
      "cle": 450,
      "take": 451,
      "knew": 452,
      "brea": 453,
      "turned": 454,
      "ning": 455,
      "little": 456,
      "call": 457,
      "bod": 458,
      "ried": 459,
      "wal": 460,
      "ort": 461,
      "make": 462,
      "cha": 463,
      "under": 464,
      "happ": 465,
      "ci": 466,
      "lie": 467,
      "mor": 468,
      "ced": 469,
      "shi": 470,
      "fin": 471,
      "may": 472,
      "ks": 473,
      "bu": 474,
      "ds": 475,
      "hel": 476,
      "ple": 477,
      "ase": 478,
      "mon": 479,
      "first": 480,
      "tor": 481,
      "men": 482,
      "gg": 483,
      "lu": 484,
      "try": 485,
      "pt": 486,
      "hu": 487,
      "body": 488,
      "ves": 489,
      "felt": 490,
      "spe": 491,
      "ser": 492,
      "ie": 493,
      "min": 494,
      "wanted": 495,
      "sit": 496,
      "stand": 497,
      "took": 498,
      "ze": 499,
      "ark": 500,
      "pull": 501,
      "comp": 502,
      "des": 503,
      "que": 504,
      "sk": 505,
      "sha": 506,
      "went": 507,
      "cont": 508,
      "sion": 509,
      "has": 510,
      "hands": 511,
      "ol": 512,
      "really": 513,
      "sur": 514,
      "ose": 515,
      "very": 516,
      "ts": 517,
      "rest": 518,
      "mis": 519,
      "les": 520,
      "used": 521,
      "ared": 522,
      "against": 523,
      "voice": 524,
      "mind": 525,
      "lea": 526,
      "put": 527,
      "ence": 528,
      "ren": 529,
      "life": 530,
      "mat": 531,
      "ish": 532,
      "though": 533,
      "ling": 534,
      "less": 535,
      "hard": 536,
      "peop": 537,
      "came": 538,
      "star": 539,
      "while": 540,
      "which": 541,
      "ready": 542,
      "left": 543,
      "dre": 544,
      "told": 545,
      "people": 546,
      "ned": 547,
      "another": 548,
      "ner": 549,
      "bro": 550,
      "ise": 551,
      "sm": 552,
      "ah": 553,
      "ph": 554,
      "last": 555,
      "cor": 556,
      "wait": 557,
      "ath": 558,
      "cr": 559,
      "cked": 560,
      "ross": 561,
      "few": 562,
      "find": 563,
      "cre": 564,
      "air": 565,
      "help": 566,
      "ful": 567,
      "ouse": 568,
      "blo": 569,
      "int": 570,
      "anything": 571,
      "chi": 572,
      "ways": 573,
      "keep": 574,
      "moment": 575,
      "being": 576,
      "hind": 577,
      "cho": 578,
      "tic": 579,
      "til": 580,
      "tra": 581,
      "fri": 582,
      "nothing": 583,
      "owed": 584,
      "set": 585,
      "str": 586,
      "behind": 587,
      "stu": 588,
      "ton": 589,
      "enough": 590,
      "toward": 591,
      "does": 592,
      "pu": 593,
      "might": 594,
      "saw": 595,
      "full": 596,
      "lau": 597,
      "run": 598,
      "old": 599,
      "part": 600,
      "ily": 601,
      "xt": 602,
      "fing": 603,
      "love": 604,
      "je": 605,
      "ies": 606,
      "ju": 607,
      "zed": 608,
      "house": 609,
      "gir": 610,
      "open": 611,
      "sound": 612,
      "beg": 613,
      "cur": 614,
      "dark": 615,
      "things": 616,
      "age": 617,
      "friend": 618,
      "tru": 619,
      "until": 620,
      "ange": 621,
      "outh": 622,
      "mer": 623,
      "app": 624,
      "maybe": 625,
      "hair": 626,
      "ff": 627,
      "those": 628,
      "place": 629,
      "care": 630,
      "ction": 631,
      "looking": 632,
      "ince": 633,
      "bab": 634,
      "hun": 635,
      "mber": 636,
      "dra": 637,
      "once": 638,
      "ear": 639,
      "wr": 640,
      "sing": 641,
      "pi": 642,
      "tre": 643,
      "bit": 644,
      "par": 645,
      "ching": 646,
      "hold": 647,
      "da": 648,
      "work": 649,
      "ped": 650,
      "ness": 651,
      "ue": 652,
      "cer": 653,
      "ses": 654,
      "both": 655,
      "girl": 656,
      "home": 657,
      "wall": 658,
      "front": 659,
      "ating": 660,
      "always": 661,
      "sen": 662,
      "oh": 663,
      "next": 664,
      "ak": 665,
      "sil": 666,
      "ms": 667,
      "ious": 668,
      "fl": 669,
      "found": 670,
      "kill": 671,
      "flo": 672,
      "sat": 673,
      "mouth": 674,
      "ja": 675,
      "inside": 676,
      "sl": 677,
      "without": 678,
      "father": 679,
      "mother": 680,
      "ken": 681,
      "shed": 682,
      "table": 683,
      "give": 684,
      "heart": 685,
      "blood": 686,
      "arms": 687,
      "woman": 688,
      "same": 689,
      "nor": 690,
      "ight": 691,
      "everything": 692,
      "ually": 693,
      "sup": 694,
      "someone": 695,
      "himself": 696,
      "heard": 697,
      "ary": 698,
      "cent": 699,
      "**": 700,
      "small": 701,
      "mean": 702,
      "wind": 703,
      "tain": 704,
      "pres": 705,
      "cour": 706,
      "trying": 707,
      "better": 708,
      "dri": 709,
      "pulled": 710,
      "cted": 711,
      "belie": 712,
      "ween": 713,
      "hear": 714,
      "kis": 715,
      "between": 716,
      "each": 717,
      "ys": 718,
      "black": 719,
      "ssed": 720,
      "seemed": 721,
      "imp": 722,
      "fam": 723,
      "ash": 724,
      "ised": 725,
      "sig": 726,
      "res": 727,
      "coun": 728,
      "since": 729,
      "smile": 730,
      "secon": 731,
      "pers": 732,
      "du": 733,
      "swe": 734,
      "deep": 735,
      "ached": 736,
      "dro": 737,
      "stre": 738,
      "qui": 739,
      "kes": 740,
      "across": 741,
      "far": 742,
      "hur": 743,
      "ob": 744,
      "pain": 745,
      "ins": 746,
      "slow": 747,
      "pping": 748,
      "myself": 749,
      "words": 750,
      "three": 751,
      "won": 752,
      "already": 753,
      "kind": 754,
      "close": 755,
      "play": 756,
      "gave": 757,
      "started": 758,
      "ows": 759,
      "almost": 760,
      "gs": 761,
      "land": 762,
      "breath": 763,
      "lot": 764,
      "quick": 765,
      "lips": 766,
      "quest": 767,
      "world": 768,
      "dont": 769,
      "years": 770,
      "sle": 771,
      "stay": 772,
      "done": 773,
      "nodd": 774,
      "must": 775,
      "stood": 776,
      "reme": 777,
      "ught": 778,
      "ot": 779,
      "ason": 780,
      "sor": 781,
      "vis": 782,
      "ane": 783,
      "dr": 784,
      "bar": 785,
      "else": 786,
      "doing": 787,
      "hell": 788,
      "okay": 789,
      "cal": 790,
      "ger": 791,
      "foll": 792,
      "pos": 793,
      "tri": 794,
      "coming": 795,
      "stop": 796,
      "tou": 797,
      "appe": 798,
      "toge": 799,
      "together": 800,
      "tried": 801,
      "war": 802,
      "name": 803,
      "walked": 804,
      "sof": 805,
      "big": 806,
      "ev": 807,
      "whis": 808,
      "ings": 809,
      "dam": 810,
      "ater": 811,
      "ank": 812,
      "step": 813,
      "minut": 814,
      "seen": 815,
      "rep": 816,
      "ene": 817,
      "dec": 818,
      "ower": 819,
      "feet": 820,
      "nodded": 821,
      "ond": 822,
      "held": 823,
      "didnt": 824,
      "ask": 825,
      "many": 826,
      "near": 827,
      "start": 828,
      "move": 829,
      "fu": 830,
      "roll": 831,
      "owing": 832,
      "water": 833,
      "dif": 834,
      "thin": 835,
      "ive": 836,
      "ek": 837,
      "these": 838,
      "times": 839,
      "real": 840,
      "gged": 841,
      "floor": 842,
      "hor": 843,
      "spo": 844,
      "tu": 845,
      "moved": 846,
      "scre": 847,
      "lar": 848,
      "wn": 849,
      "question": 850,
      "cou": 851,
      "ces": 852,
      "talk": 853,
      "yet": 854,
      "ket": 855,
      "bad": 856,
      "says": 857,
      "form": 858,
      "leave": 859,
      "mr": 860,
      "tered": 861,
      "smiled": 862,
      "gone": 863,
      "fall": 864,
      "chest": 865,
      "son": 866,
      "inter": 867,
      "ined": 868,
      "lor": 869,
      "eas": 870,
      "called": 871,
      "nu": 872,
      "cra": 873,
      "ef": 874,
      "herself": 875,
      "word": 876,
      "getting": 877,
      "fingers": 878,
      "arr": 879,
      "add": 880,
      "hour": 881,
      "needed": 882,
      "top": 883,
      "fully": 884,
      "half": 885,
      "reali": 886,
      "began": 887,
      "pri": 888,
      "ber": 889,
      "ered": 890,
      "phone": 891,
      "wer": 892,
      "ran": 893,
      "also": 894,
      "stra": 895,
      "pass": 896,
      "aced": 897,
      "lean": 898,
      "rent": 899,
      "ither": 900,
      "cas": 901,
      "ground": 902,
      "live": 903,
      "dead": 904,
      "ished": 905,
      "aring": 906,
      "shook": 907,
      "course": 908,
      "along": 909,
      "yeah": 910,
      "child": 911,
      "soon": 912,
      "ately": 913,
      "second": 914,
      "probab": 915,
      "dist": 916,
      "mes": 917,
      "plan": 918,
      "finally": 919,
      "ny": 920,
      "probably": 921,
      "pick": 922,
      "main": 923,
      "ged": 924,
      "dden": 925,
      "pret": 926,
      "past": 927,
      "cut": 928,
      "god": 929,
      "boy": 930,
      "such": 931,
      "att": 932,
      "ris": 933,
      "sudden": 934,
      "stead": 935,
      "possi": 936,
      "grab": 937,
      "cu": 938,
      "person": 939,
      "fle": 940,
      "sid": 941,
      "least": 942,
      "ently": 943,
      "happened": 944,
      "high": 945,
      "mit": 946,
      "best": 947,
      "contin": 948,
      "gri": 949,
      "sun": 950,
      "cus": 951,
      "reached": 952,
      "eye": 953,
      "great": 954,
      "pat": 955,
      "fire": 956,
      "believe": 957,
      "sorry": 958,
      "char": 959,
      "ia": 960,
      "skin": 961,
      "anger": 962,
      "stru": 963,
      "arent": 964,
      "making": 965,
      "white": 966,
      "tight": 967,
      "ster": 968,
      "later": 969,
      "cli": 970,
      "dan": 971,
      "stopped": 972,
      "cy": 973,
      "feeling": 974,
      "soft": 975,
      "idd": 976,
      "surpr": 977,
      "taking": 978,
      "ters": 979,
      "opened": 980,
      "sy": 981,
      "understand": 982,
      "list": 983,
      "hea": 984,
      "lle": 985,
      "cla": 986,
      "human": 987,
      "anyone": 988,
      "meet": 989,
      "mag": 990,
      "bus": 991,
      "family": 992,
      "remember": 993,
      "cking": 994,
      "power": 995,
      "temp": 996,
      "sleep": 997,
      "everyone": 998,
      "fight": 999,
      "idea": 1000,
      "dire": 1001,
      "mine": 1002,
      "enti": 1003,
      "brother": 1004,
      "ls": 1005,
      "forward": 1006,
      "cat": 1007,
      "neck": 1008,
      "morning": 1009,
      "shoulder": 1010,
      "bri": 1011,
      "diffe": 1012,
      "days": 1013,
      "sli": 1014,
      "reason": 1015,
      "book": 1016,
      "happen": 1017,
      "fted": 1018,
      "oud": 1019,
      "kept": 1020,
      "glan": 1021,
      "gra": 1022,
      "comple": 1023,
      "clear": 1024,
      "vers": 1025,
      "fact": 1026,
      "fect": 1027,
      "hes": 1028,
      "dered": 1029,
      "line": 1030,
      "ided": 1031,
      "mas": 1032,
      "youn": 1033,
      "ian": 1034,
      "quickly": 1035,
      "au": 1036,
      "four": 1037,
      "vered": 1038,
      "mom": 1039,
      "thro": 1040,
      "dy": 1041,
      "gen": 1042,
      "hit": 1043,
      "pic": 1044,
      "alone": 1045,
      "guy": 1046,
      "fre": 1047,
      "onto": 1048,
      "cess": 1049,
      "gue": 1050,
      "closed": 1051,
      "walk": 1052,
      "lin": 1053,
      "quiet": 1054,
      "aw": 1055,
      "slowly": 1056,
      "hall": 1057,
      "aut": 1058,
      "mur": 1059,
      "bor": 1060,
      "ale": 1061,
      "fine": 1062,
      "met": 1063,
      "having": 1064,
      "ches": 1065,
      "thinking": 1066,
      "wrong": 1067,
      "ering": 1068,
      "emp": 1069,
      "ual": 1070,
      "nat": 1071,
      "zz": 1072,
      "tw": 1073,
      "please": 1074,
      "fill": 1075,
      "expe": 1076,
      "fell": 1077,
      "hurt": 1078,
      "bra": 1079,
      "laugh": 1080,
      "lied": 1081,
      "cold": 1082,
      "stared": 1083,
      "answer": 1084,
      "um": 1085,
      "talking": 1086,
      "dou": 1087,
      "mand": 1088,
      "vam": 1089,
      "warm": 1090,
      "watched": 1091,
      "lay": 1092,
      "hope": 1093,
      "either": 1094,
      "point": 1095,
      "prote": 1096,
      "ping": 1097,
      "minutes": 1098,
      "ended": 1099,
      "lic": 1100,
      "plain": 1101,
      "fun": 1102,
      "beaut": 1103,
      "noti": 1104,
      "matter": 1105,
      "actually": 1106,
      "certain": 1107,
      "outside": 1108,
      "ously": 1109,
      "pter": 1110,
      "wonder": 1111,
      "motion": 1112,
      "chair": 1113,
      "dad": 1114,
      "ghed": 1115,
      "ild": 1116,
      "suddenly": 1117,
      "sis": 1118,
      "cks": 1119,
      "resp": 1120,
      "gun": 1121,
      "lly": 1122,
      "lost": 1123,
      "iness": 1124,
      "standing": 1125,
      "tive": 1126,
      "ring": 1127,
      "pur": 1128,
      "guard": 1129,
      "pered": 1130,
      "guess": 1131,
      "gaze": 1132,
      "oney": 1133,
      "thre": 1134,
      "jack": 1135,
      "ones": 1136,
      "kid": 1137,
      "wood": 1138,
      "ele": 1139,
      "vie": 1140,
      "din": 1141,
      "tention": 1142,
      "fast": 1143,
      "val": 1144,
      "continu": 1145,
      "taken": 1146,
      "lad": 1147,
      "gar": 1148,
      "free": 1149,
      "vy": 1150,
      "waiting": 1151,
      "whole": 1152,
      "shir": 1153,
      "blue": 1154,
      "eld": 1155,
      "figu": 1156,
      "poin": 1157,
      "different": 1158,
      "ations": 1159,
      "pretty": 1160,
      "caught": 1161,
      "safe": 1162,
      "exact": 1163,
      "thank": 1164,
      "bot": 1165,
      "ago": 1166,
      "ship": 1167,
      "grin": 1168,
      "zing": 1169,
      "friends": 1170,
      "build": 1171,
      "gest": 1172,
      "offe": 1173,
      "kne": 1174,
      "clu": 1175,
      "instead": 1176,
      "stair": 1177,
      "burn": 1178,
      "complete": 1179,
      "case": 1180,
      "laughed": 1181,
      "die": 1182,
      "five": 1183,
      "sw": 1184,
      "death": 1185,
      "sol": 1186,
      "chapter": 1187,
      "sive": 1188,
      "rid": 1189,
      "short": 1190,
      "vampi": 1191,
      "shit": 1192,
      "scho": 1193,
      "round": 1194,
      "ming": 1195,
      "van": 1196,
      "break": 1197,
      "prom": 1198,
      "sign": 1199,
      "others": 1200,
      "simp": 1201,
      "suppo": 1202,
      "ased": 1203,
      "school": 1204,
      "mach": 1205,
      "vin": 1206,
      "action": 1207,
      "fli": 1208,
      "seat": 1209,
      "scream": 1210,
      "imag": 1211,
      "show": 1212,
      "bur": 1213,
      "legs": 1214,
      "shot": 1215,
      "looks": 1216,
      "young": 1217,
      "vel": 1218,
      "throat": 1219,
      "ky": 1220,
      "hot": 1221,
      "fort": 1222,
      "late": 1223,
      "smo": 1224,
      "reg": 1225,
      "os": 1226,
      "whispered": 1227,
      "bare": 1228,
      "har": 1229,
      "sense": 1230,
      "chang": 1231,
      "foot": 1232,
      "bring": 1233,
      "eks": 1234,
      "shad": 1235,
      "glanced": 1236,
      "ents": 1237,
      "kit": 1238,
      "cing": 1239,
      "window": 1240,
      "ons": 1241,
      "sent": 1242,
      "sex": 1243,
      "ult": 1244,
      "gy": 1245,
      "straight": 1246,
      "street": 1247,
      "happy": 1248,
      "strong": 1249,
      "va": 1250,
      "whatever": 1251,
      "brought": 1252,
      "possible": 1253,
      "tom": 1254,
      "ball": 1255,
      "cept": 1256,
      "town": 1257,
      "holding": 1258,
      "bru": 1259,
      "stepped": 1260,
      "lead": 1261,
      "thir": 1262,
      "gas": 1263,
      "inte": 1264,
      "large": 1265,
      "shut": 1266,
      "wra": 1267,
      "change": 1268,
      "vic": 1269,
      "den": 1270,
      "meant": 1271,
      "uring": 1272,
      "dream": 1273,
      "watch": 1274,
      "kiss": 1275,
      "gan": 1276,
      "appeared": 1277,
      "exactly": 1278,
      "vor": 1279,
      "ending": 1280,
      "appro": 1281,
      "shirt": 1282,
      "sever": 1283,
      "row": 1284,
      "cry": 1285,
      "quite": 1286,
      "sitting": 1287,
      "sna": 1288,
      "touch": 1289,
      "inst": 1290,
      "stro": 1291,
      "band": 1292,
      "leaned": 1293,
      "ire": 1294,
      "finger": 1295,
      "perfect": 1296,
      "watching": 1297,
      "nice": 1298,
      "als": 1299,
      "fer": 1300,
      "rel": 1301,
      "ening": 1302,
      "iful": 1303,
      "glass": 1304,
      "year": 1305,
      "realized": 1306,
      "known": 1307,
      "entire": 1308,
      "six": 1309,
      "dress": 1310,
      "bb": 1311,
      "rol": 1312,
      "ures": 1313,
      "sme": 1314,
      "moving": 1315,
      "covered": 1316,
      "ths": 1317,
      "abo": 1318,
      "ror": 1319,
      "yed": 1320,
      "exc": 1321,
      "conf": 1322,
      "running": 1323,
      "explain": 1324,
      "followed": 1325,
      "fear": 1326,
      "ants": 1327,
      "cross": 1328,
      "fur": 1329,
      "pie": 1330,
      "wel": 1331,
      "sus": 1332,
      "true": 1333,
      "pan": 1334,
      "hours": 1335,
      "sub": 1336,
      "lves": 1337,
      "job": 1338,
      "closer": 1339,
      "slid": 1340,
      "deal": 1341,
      "given": 1342,
      "several": 1343,
      "bag": 1344,
      "mbled": 1345,
      "cir": 1346,
      "continued": 1347,
      "baby": 1348,
      "grabbed": 1349,
      "attention": 1350,
      "ley": 1351,
      "shru": 1352,
      "week": 1353,
      "fice": 1354,
      "ding": 1355,
      "lan": 1356,
      "replied": 1357,
      "loved": 1358,
      "mped": 1359,
      "ctor": 1360,
      "mir": 1361,
      "chen": 1362,
      "beautiful": 1363,
      "ular": 1364,
      "tee": 1365,
      "interest": 1366,
      "oc": 1367,
      "chance": 1368,
      "yell": 1369,
      "stairs": 1370,
      "youre": 1371,
      "remain": 1372,
      "pushed": 1373,
      "ition": 1374,
      "damn": 1375,
      "aces": 1376,
      "cup": 1377,
      "trust": 1378,
      "longer": 1379,
      "eng": 1380,
      "pal": 1381,
      "bi": 1382,
      "pen": 1383,
      "beside": 1384,
      "wed": 1385,
      "ries": 1386,
      "saying": 1387,
      "road": 1388,
      "city": 1389,
      "tonight": 1390,
      "ates": 1391,
      "sear": 1392,
      "shoulders": 1393,
      "grand": 1394,
      "living": 1395,
      "reach": 1396,
      "lear": 1397,
      "lun": 1398,
      "ited": 1399,
      "cover": 1400,
      "ali": 1401,
      "lying": 1402,
      "died": 1403,
      "haps": 1404,
      "teen": 1405,
      "peri": 1406,
      "stri": 1407,
      "apart": 1408,
      "pack": 1409,
      "couple": 1410,
      "mad": 1411,
      "today": 1412,
      "perhaps": 1413,
      "rolled": 1414,
      "parent": 1415,
      "money": 1416,
      "proble": 1417,
      "slight": 1418,
      "sky": 1419,
      "using": 1420,
      "ben": 1421,
      "turning": 1422,
      "rose": 1423,
      "squ": 1424,
      "ments": 1425,
      "aged": 1426,
      "tears": 1427,
      "control": 1428,
      "thats": 1429,
      "ying": 1430,
      "cru": 1431,
      "isted": 1432,
      "serious": 1433,
      "green": 1434,
      "smell": 1435,
      "wasnt": 1436,
      "win": 1437,
      "kitchen": 1438,
      "speak": 1439,
      "pression": 1440,
      "dropped": 1441,
      "ison": 1442,
      "tin": 1443,
      "women": 1444,
      "leaving": 1445,
      "bene": 1446,
      "est": 1447,
      "por": 1448,
      "decided": 1449,
      "antly": 1450,
      "doub": 1451,
      "igh": 1452,
      "office": 1453,
      "above": 1454,
      "sister": 1455,
      "bat": 1456,
      "zy": 1457,
      "mal": 1458,
      "sort": 1459,
      "filled": 1460,
      "truth": 1461,
      "ident": 1462,
      "ung": 1463,
      "parents": 1464,
      "gotten": 1465,
      "pleas": 1466,
      "memor": 1467,
      "alex": 1468,
      "posit": 1469,
      "immed": 1470,
      "expression": 1471,
      "leg": 1472,
      "fla": 1473,
      "ders": 1474,
      "cri": 1475,
      "ining": 1476,
      "mut": 1477,
      "passed": 1478,
      "business": 1479,
      "gro": 1480,
      "obvi": 1481,
      "raised": 1482,
      "dred": 1483,
      "working": 1484,
      "shar": 1485,
      "hers": 1486,
      "anyway": 1487,
      "bas": 1488,
      "secre": 1489,
      "pressed": 1490,
      "spoke": 1491,
      "seeing": 1492,
      "raid": 1493,
      "kno": 1494,
      "box": 1495,
      "ility": 1496,
      "ging": 1497,
      "lifted": 1498,
      "stomach": 1499,
      "rac": 1500,
      "shing": 1501,
      "completely": 1502,
      "crow": 1503,
      "arri": 1504,
      "iled": 1505,
      "sar": 1506,
      "drink": 1507,
      "hen": 1508,
      "giving": 1509,
      "silence": 1510,
      "ils": 1511,
      "sou": 1512,
      "pay": 1513,
      "worry": 1514,
      "ba": 1515,
      "bright": 1516,
      "wenty": 1517,
      "twenty": 1518,
      "edge": 1519,
      "fic": 1520,
      "vent": 1521,
      "steps": 1522,
      "walking": 1523,
      "thu": 1524,
      "corner": 1525,
      "begin": 1526,
      "attack": 1527,
      "rather": 1528,
      "miss": 1529,
      "frown": 1530,
      "food": 1531,
      "staring": 1532,
      "cell": 1533,
      "guys": 1534,
      "thes": 1535,
      "em": 1536,
      "sight": 1537,
      "swi": 1538,
      "hang": 1539,
      "stone": 1540,
      "sque": 1541,
      "supposed": 1542,
      "hundred": 1543,
      "killed": 1544,
      "makes": 1545,
      "become": 1546,
      "knowing": 1547,
      "ical": 1548,
      "immedi": 1549,
      "tory": 1550,
      "wide": 1551,
      "terri": 1552,
      "sides": 1553,
      "ashed": 1554,
      "within": 1555,
      "anna": 1556,
      "hung": 1557,
      "ctive": 1558,
      "bir": 1559,
      "shout": 1560,
      "building": 1561,
      "fair": 1562,
      "wish": 1563,
      "grow": 1564,
      "picked": 1565,
      "iling": 1566,
      "changed": 1567,
      "view": 1568,
      "lla": 1569,
      "teeth": 1570,
      "sca": 1571,
      "noticed": 1572,
      "nearly": 1573,
      "ded": 1574,
      "waited": 1575,
      "ili": 1576,
      "ina": 1577,
      "yourself": 1578,
      "sighed": 1579,
      "sam": 1580,
      "rup": 1581,
      "beat": 1582,
      "girls": 1583,
      "mus": 1584,
      "afraid": 1585,
      "joh": 1586,
      "vid": 1587,
      "story": 1588,
      "upon": 1589,
      "clean": 1590,
      "thanks": 1591,
      "bow": 1592,
      "phi": 1593,
      "gold": 1594,
      "ler": 1595,
      "emb": 1596,
      "thoughts": 1597,
      "clothes": 1598,
      "towards": 1599,
      "bla": 1600,
      "couldnt": 1601,
      "concer": 1602,
      "danger": 1603,
      "easy": 1604,
      "eat": 1605,
      "sweet": 1606,
      "seem": 1607,
      "jer": 1608,
      "luck": 1609,
      "pict": 1610,
      "drive": 1611,
      "enjo": 1612,
      "plo": 1613,
      "wered": 1614,
      "cant": 1615,
      "returned": 1616,
      "trou": 1617,
      "xed": 1618,
      "fit": 1619,
      "strange": 1620,
      "ier": 1621,
      "stuff": 1622,
      "ists": 1623,
      "direction": 1624,
      "ama": 1625,
      "grou": 1626,
      "placed": 1627,
      "worked": 1628,
      "flow": 1629,
      "import": 1630,
      "kissed": 1631,
      "opp": 1632,
      "ject": 1633,
      "gray": 1634,
      "kick": 1635,
      "bling": 1636,
      "lord": 1637,
      "children": 1638,
      "convers": 1639,
      "vol": 1640,
      "gon": 1641,
      "loud": 1642,
      "minute": 1643,
      "vampire": 1644,
      "pointed": 1645,
      "telling": 1646,
      "cap": 1647,
      "key": 1648,
      "beneath": 1649,
      "order": 1650,
      "reco": 1651,
      "wife": 1652,
      "respon": 1653,
      "iddle": 1654,
      "coffe": 1655,
      "shrugged": 1656,
      "barely": 1657,
      "john": 1658,
      "board": 1659,
      "empty": 1660,
      "gging": 1661,
      "thick": 1662,
      "hey": 1663,
      "cial": 1664,
      "ions": 1665,
      "answered": 1666,
      "dar": 1667,
      "cket": 1668,
      "spot": 1669,
      "reed": 1670,
      "sts": 1671,
      "assu": 1672,
      "sometimes": 1673,
      "coffee": 1674,
      "pun": 1675,
      "tongue": 1676,
      "desk": 1677,
      "demon": 1678,
      "figure": 1679,
      "surprised": 1680,
      "sum": 1681,
      "wondered": 1682,
      "remind": 1683,
      "cheek": 1684,
      "fas": 1685,
      "ens": 1686,
      "bly": 1687,
      "immediately": 1688,
      "stup": 1689,
      "emotion": 1690,
      "knows": 1691,
      "sn": 1692,
      "problem": 1693,
      "experi": 1694,
      "bill": 1695,
      "sharp": 1696,
      "colle": 1697,
      "thor": 1698,
      "return": 1699,
      "bey": 1700,
      "middle": 1701,
      "during": 1702,
      "force": 1703,
      "heavy": 1704,
      "uni": 1705,
      "ial": 1706,
      "mid": 1707,
      "draw": 1708,
      "none": 1709,
      "rub": 1710,
      "bered": 1711,
      "ann": 1712,
      "ka": 1713,
      "lady": 1714,
      "selves": 1715,
      "port": 1716,
      "cting": 1717,
      "tar": 1718,
      "aded": 1719,
      "comfor": 1720,
      "bath": 1721,
      "ities": 1722,
      "sic": 1723,
      "iff": 1724,
      "ied": 1725,
      "sco": 1726,
      "drew": 1727,
      "gener": 1728,
      "added": 1729,
      "law": 1730,
      "earth": 1731,
      "although": 1732,
      "liked": 1733,
      "fied": 1734,
      "sand": 1735,
      "nose": 1736,
      "pas": 1737,
      "stupid": 1738,
      "rock": 1739,
      "bal": 1740,
      "finished": 1741,
      "daught": 1742,
      "months": 1743,
      "wearing": 1744,
      "tone": 1745,
      "tt": 1746,
      "capt": 1747,
      "itch": 1748,
      "sir": 1749,
      "admit": 1750,
      "conversation": 1751,
      "ute": 1752,
      "fra": 1753,
      "paper": 1754,
      "headed": 1755,
      "climb": 1756,
      "pulling": 1757,
      "however": 1758,
      "rele": 1759,
      "poli": 1760,
      "wild": 1761,
      "press": 1762,
      "anymore": 1763,
      "relie": 1764,
      "lights": 1765,
      "nick": 1766,
      "don": 1767,
      "mill": 1768,
      "moun": 1769,
      "simply": 1770,
      "number": 1771,
      "cast": 1772,
      "thed": 1773,
      "mark": 1774,
      "unt": 1775,
      "sounded": 1776,
      "inc": 1777,
      "cool": 1778,
      "famili": 1779,
      "inform": 1780,
      "trouble": 1781,
      "tall": 1782,
      "space": 1783,
      "pair": 1784,
      "sal": 1785,
      "ey": 1786,
      "lip": 1787,
      "state": 1788,
      "claim": 1789,
      "crack": 1790,
      "gor": 1791,
      "slightly": 1792,
      "gently": 1793,
      "sie": 1794,
      "except": 1795,
      "--": 1796,
      "mbered": 1797,
      "jac": 1798,
      "knees": 1799,
      "narr": 1800,
      "chu": 1801,
      "tas": 1802,
      "esca": 1803,
      "calm": 1804,
      "fro": 1805,
      "became": 1806,
      "male": 1807,
      "cep": 1808,
      "touched": 1809,
      "important": 1810,
      "wake": 1811,
      "alive": 1812,
      "cially": 1813,
      "iding": 1814,
      "offic": 1815,
      "gent": 1816,
      "ital": 1817,
      "acing": 1818,
      "cles": 1819,
      "fif": 1820,
      "sage": 1821,
      "test": 1822,
      "softly": 1823,
      "shes": 1824,
      "consid": 1825,
      "sad": 1826,
      "group": 1827,
      "morrow": 1828,
      "spent": 1829,
      "broken": 1830,
      "fold": 1831,
      "bedroom": 1832,
      "stret": 1833,
      "sounds": 1834,
      "hus": 1835,
      "pho": 1836,
      "rage": 1837,
      "jen": 1838,
      "recog": 1839,
      "jes": 1840,
      "color": 1841,
      "ahead": 1842,
      "stick": 1843,
      "prof": 1844,
      "ney": 1845,
      "phy": 1846,
      "eight": 1847,
      "sold": 1848,
      "doors": 1849,
      "check": 1850,
      "dinner": 1851,
      "surprise": 1852,
      "position": 1853,
      "brown": 1854,
      "somehow": 1855,
      "heal": 1856,
      "weeks": 1857,
      "tomorrow": 1858,
      "secret": 1859,
      "wrapped": 1860,
      "wants": 1861,
      "hy": 1862,
      "ges": 1863,
      "crazy": 1864,
      "worse": 1865,
      "espe": 1866,
      "tiny": 1867,
      "threat": 1868,
      "glad": 1869,
      "quietly": 1870,
      "ically": 1871,
      "sick": 1872,
      "somewhere": 1873,
      "conne": 1874,
      "hesit": 1875,
      "ards": 1876,
      "worth": 1877,
      "defin": 1878,
      "police": 1879,
      "deser": 1880,
      "follow": 1881,
      "doubt": 1882,
      "single": 1883,
      "col": 1884,
      "piece": 1885,
      "kids": 1886,
      "boo": 1887,
      "daughter": 1888,
      "suit": 1889,
      "especially": 1890,
      "path": 1891,
      "broke": 1892,
      "swall": 1893,
      "rad": 1894,
      "locked": 1895,
      "seconds": 1896,
      "eli": 1897,
      "field": 1898,
      "beth": 1899,
      "tired": 1900,
      "dir": 1901,
      "weak": 1902,
      "darkness": 1903,
      "worried": 1904,
      "ony": 1905,
      "flu": 1906,
      "writ": 1907,
      "pul": 1908,
      "rich": 1909,
      "vision": 1910,
      "pes": 1911,
      "remembered": 1912,
      "squee": 1913,
      "demand": 1914,
      "bull": 1915,
      "lap": 1916,
      "command": 1917,
      "area": 1918,
      "juli": 1919,
      "wore": 1920,
      "takes": 1921,
      "weap": 1922,
      "wolf": 1923,
      "io": 1924,
      "beyond": 1925,
      "sty": 1926,
      "ilt": 1927,
      "rat": 1928,
      "silent": 1929,
      "isa": 1930,
      "managed": 1931,
      "sug": 1932,
      "heat": 1933,
      "explo": 1934,
      "questions": 1935,
      "mention": 1936,
      "tree": 1937,
      "chris": 1938,
      "deli": 1939,
      "spir": 1940,
      "dev": 1941,
      "paused": 1942,
      "threw": 1943,
      "situ": 1944,
      "walls": 1945,
      "mrs": 1946,
      "trees": 1947,
      "game": 1948,
      "information": 1949,
      "means": 1950,
      "sigh": 1951,
      "huge": 1952,
      "rain": 1953,
      "cab": 1954,
      "magic": 1955,
      "wound": 1956,
      "seems": 1957,
      "appear": 1958,
      "comes": 1959,
      "dressed": 1960,
      "stare": 1961,
      "prac": 1962,
      "spread": 1963,
      "suggest": 1964,
      "expected": 1965,
      "dry": 1966,
      "oked": 1967,
      "sett": 1968,
      "lock": 1969,
      "flat": 1970,
      "ative": 1971,
      "forced": 1972,
      "distance": 1973,
      "doctor": 1974,
      "thered": 1975,
      "shaking": 1976,
      "angry": 1977,
      "ron": 1978,
      "ric": 1979,
      "fuck": 1980,
      "bre": 1981,
      "amed": 1982,
      "vice": 1983,
      "inv": 1984,
      "meeting": 1985,
      "eve": 1986,
      "spl": 1987,
      "ith": 1988,
      "forget": 1989,
      "news": 1990,
      "shu": 1991,
      "catch": 1992,
      "firm": 1993,
      "pet": 1994,
      "lier": 1995,
      "listen": 1996,
      "track": 1997,
      "event": 1998,
      "ient": 1999,
      "early": 2000,
      "party": 2001,
      "max": 2002,
      "carry": 2003,
      "playing": 2004,
      "ties": 2005,
      "agreed": 2006,
      "smiling": 2007,
      "aking": 2008,
      "crowd": 2009,
      "ably": 2010,
      "igno": 2011,
      "apo": 2012,
      "wet": 2013,
      "present": 2014,
      "dru": 2015,
      "grace": 2016,
      "rist": 2017,
      "waist": 2018,
      "jaw": 2019,
      "slam": 2020,
      "spect": 2021,
      "bs": 2022,
      "eric": 2023,
      "anim": 2024,
      "pocket": 2025,
      "mbling": 2026,
      "hide": 2027,
      "ener": 2028,
      "kni": 2029,
      "class": 2030,
      "promise": 2031,
      "mel": 2032,
      "chuck": 2033,
      "trans": 2034,
      "mate": 2035,
      "ising": 2036,
      "tel": 2037,
      "keeping": 2038,
      "chin": 2039,
      "brief": 2040,
      "clearly": 2041,
      "rela": 2042,
      "counter": 2043,
      "camp": 2044,
      "cro": 2045,
      "ousand": 2046,
      "thousand": 2047,
      "els": 2048,
      "rence": 2049,
      "surround": 2050,
      "reve": 2051,
      "pleasure": 2052,
      "tern": 2053,
      "snapped": 2054,
      "boys": 2055,
      "save": 2056,
      "agree": 2057,
      "nerv": 2058,
      "bell": 2059,
      "pis": 2060,
      "desper": 2061,
      "ances": 2062,
      "tically": 2063,
      "husband": 2064,
      "often": 2065,
      "brow": 2066,
      "mess": 2067,
      "respond": 2068,
      "desp": 2069,
      "tian": 2070,
      "born": 2071,
      "zen": 2072,
      "fut": 2073,
      "hone": 2074,
      "comfortable": 2075,
      "ign": 2076,
      "recogni": 2077,
      "sword": 2078,
      "lets": 2079,
      "below": 2080,
      "repe": 2081,
      "familiar": 2082,
      "aware": 2083,
      "hate": 2084,
      "choice": 2085,
      "survi": 2086,
      "dog": 2087,
      "expect": 2088,
      "whether": 2089,
      "further": 2090,
      "stren": 2091,
      "mission": 2092,
      "def": 2093,
      "normal": 2094,
      "ery": 2095,
      "send": 2096,
      "ham": 2097,
      "weight": 2098,
      "ible": 2099,
      "ref": 2100,
      "bottom": 2101,
      "hood": 2102,
      "mbers": 2103,
      "handed": 2104,
      "jam": 2105,
      "noon": 2106,
      "ari": 2107,
      "streng": 2108,
      "earlier": 2109,
      "definite": 2110,
      "attemp": 2111,
      "tering": 2112,
      "scent": 2113,
      "pound": 2114,
      "cher": 2115,
      "blin": 2116,
      "certainly": 2117,
      "lived": 2118,
      "bathroom": 2119,
      "mun": 2120,
      "battle": 2121,
      "crossed": 2122,
      "grinned": 2123,
      "slipped": 2124,
      "obviously": 2125,
      "missed": 2126,
      "nie": 2127,
      "stor": 2128,
      "favor": 2129,
      "evening": 2130,
      "letting": 2131,
      "pin": 2132,
      "ana": 2133,
      "team": 2134,
      "company": 2135,
      "flash": 2136,
      "situation": 2137,
      "jor": 2138,
      "asking": 2139,
      "creat": 2140,
      "shall": 2141,
      "arrived": 2142,
      "ston": 2143,
      "bottle": 2144,
      "tors": 2145,
      "hat": 2146,
      "gets": 2147,
      "asses": 2148,
      "oper": 2149,
      "natur": 2150,
      "usual": 2151,
      "jumped": 2152,
      "aled": 2153,
      "priv": 2154,
      "apparent": 2155,
      "ker": 2156,
      "apartment": 2157,
      "za": 2158,
      "idence": 2159,
      "vill": 2160,
      "usually": 2161,
      "frowned": 2162,
      "wear": 2163,
      "center": 2164,
      "cheeks": 2165,
      "snow": 2166,
      "willing": 2167,
      "carefully": 2168,
      "moon": 2169,
      "hoping": 2170,
      "muttered": 2171,
      "consc": 2172,
      "aint": 2173,
      "showed": 2174,
      "drop": 2175,
      "mary": 2176,
      "realize": 2177,
      "gentle": 2178,
      "avo": 2179,
      "hoped": 2180,
      "jon": 2181,
      "scar": 2182,
      "breathing": 2183,
      "direct": 2184,
      "unders": 2185,
      "twi": 2186,
      "lose": 2187,
      "laughing": 2188,
      "smoo": 2189,
      "glance": 2190,
      "silver": 2191,
      "jake": 2192,
      "bun": 2193,
      "queen": 2194,
      "themselves": 2195,
      "imagine": 2196,
      "ggled": 2197,
      "jump": 2198,
      "grew": 2199,
      "picture": 2200,
      "curi": 2201,
      "soul": 2202,
      "ears": 2203,
      "definitely": 2204,
      "pose": 2205,
      "seven": 2206,
      "ages": 2207,
      "super": 2208,
      "prin": 2209,
      "ager": 2210,
      "inde": 2211,
      "scra": 2212,
      "whisper": 2213,
      "brain": 2214,
      "notice": 2215,
      "offered": 2216,
      "cand": 2217,
      "despite": 2218,
      "suc": 2219,
      "master": 2220,
      "hon": 2221,
      "strength": 2222,
      "hosp": 2223,
      "lli": 2224,
      "len": 2225,
      "christ": 2226,
      "lives": 2227,
      "anti": 2228,
      "likely": 2229,
      "james": 2230,
      "scared": 2231,
      "coll": 2232,
      "captain": 2233,
      "handle": 2234,
      "base": 2235,
      "zo": 2236,
      "fresh": 2237,
      "wid": 2238,
      "metal": 2239,
      "wise": 2240,
      "beginning": 2241,
      "talked": 2242,
      "note": 2243,
      "future": 2244,
      "mac": 2245,
      "besides": 2246,
      "knife": 2247,
      "entered": 2248,
      "sla": 2249,
      "count": 2250,
      "horse": 2251,
      "aned": 2252,
      "exha": 2253,
      "simple": 2254,
      "fan": 2255,
      "easily": 2256,
      "mm": 2257,
      "formed": 2258,
      "fighting": 2259,
      "vest": 2260,
      "tail": 2261,
      "termin": 2262,
      "forehead": 2263,
      "truck": 2264,
      "pill": 2265,
      "shouted": 2266,
      "ki": 2267,
      "micha": 2268,
      "helped": 2269,
      "lyn": 2270,
      "thirty": 2271,
      "memory": 2272,
      "ethan": 2273,
      "ender": 2274,
      "sweat": 2275,
      "stayed": 2276,
      "forever": 2277,
      "allowed": 2278,
      "bing": 2279,
      "spr": 2280,
      "log": 2281,
      "idden": 2282,
      "une": 2283,
      "remained": 2284,
      "date": 2285,
      "honest": 2286,
      "music": 2287,
      "relation": 2288,
      "search": 2289,
      "tori": 2290,
      "itself": 2291,
      "aside": 2292,
      "wouldnt": 2293,
      "rely": 2294,
      "ors": 2295,
      "bel": 2296,
      "neither": 2297,
      "appo": 2298,
      "among": 2299,
      "kat": 2300,
      "needs": 2301,
      "card": 2302,
      "pale": 2303,
      "protect": 2304,
      "decis": 2305,
      "flesh": 2306,
      "mountain": 2307,
      "hill": 2308,
      "vampires": 2309,
      "david": 2310,
      "focus": 2311,
      "photo": 2312,
      "push": 2313,
      "cried": 2314,
      "brows": 2315,
      "vir": 2316,
      "sea": 2317,
      "married": 2318,
      "kets": 2319,
      "special": 2320,
      "diffic": 2321,
      "gn": 2322,
      "visit": 2323,
      "tense": 2324,
      "shadow": 2325,
      "shock": 2326,
      "tie": 2327,
      "brid": 2328,
      "emer": 2329,
      "destro": 2330,
      "jud": 2331,
      "contact": 2332,
      "falling": 2333,
      "py": 2334,
      "ledge": 2335,
      "coat": 2336,
      "dying": 2337,
      "asing": 2338,
      "afternoon": 2339,
      "hospital": 2340,
      "proper": 2341,
      "ained": 2342,
      "energy": 2343,
      "older": 2344,
      "oned": 2345,
      "mirror": 2346,
      "settled": 2347,
      "secur": 2348,
      "shake": 2349,
      "frey": 2350,
      "adam": 2351,
      "played": 2352,
      "ration": 2353,
      "invol": 2354,
      "jeans": 2355,
      "thy": 2356,
      "store": 2357,
      "wit": 2358,
      "river": 2359,
      "calling": 2360,
      "personal": 2361,
      "screen": 2362,
      "asks": 2363,
      "explained": 2364,
      "fting": 2365,
      "following": 2366,
      "bbing": 2367,
      "lou": 2368,
      "appre": 2369,
      "burst": 2370,
      "hated": 2371,
      "wanting": 2372,
      "llen": 2373,
      "conscious": 2374,
      "cole": 2375,
      "dear": 2376,
      "partic": 2377,
      "ride": 2378,
      "tray": 2379,
      "tood": 2380,
      "odd": 2381,
      "dust": 2382,
      "fool": 2383,
      "rick": 2384,
      "acc": 2385,
      "moments": 2386,
      "learned": 2387,
      "putting": 2388,
      "understood": 2389,
      "couch": 2390,
      "lies": 2391,
      "apparently": 2392,
      "speed": 2393,
      "hole": 2394,
      "stal": 2395,
      "tun": 2396,
      "dani": 2397,
      "hips": 2398,
      "pit": 2399,
      "court": 2400,
      "guards": 2401,
      "ends": 2402,
      "camer": 2403,
      "ets": 2404,
      "shower": 2405,
      "solute": 2406,
      "mage": 2407,
      "relief": 2408,
      "nel": 2409,
      "particular": 2410,
      "goes": 2411,
      "opening": 2412,
      "laught": 2413,
      "discus": 2414,
      "bear": 2415,
      "noise": 2416,
      "hanging": 2417,
      "wondering": 2418,
      "michael": 2419,
      "drove": 2420,
      "feat": 2421,
      "hunter": 2422,
      "turns": 2423,
      "pants": 2424,
      "park": 2425,
      "mble": 2426,
      "jason": 2427,
      "dance": 2428,
      "mist": 2429,
      "ises": 2430,
      "missing": 2431,
      "boat": 2432,
      "thigh": 2433,
      "reading": 2434,
      "non": 2435,
      "stuck": 2436,
      "00": 2437,
      "finish": 2438,
      "dangerous": 2439,
      "ured": 2440,
      "ines": 2441,
      "busy": 2442,
      "figured": 2443,
      "third": 2444,
      "carried": 2445,
      "escape": 2446,
      "cei": 2447,
      "ban": 2448,
      "rit": 2449,
      "ination": 2450,
      "starting": 2451,
      "dim": 2452,
      "inclu": 2453,
      "mike": 2454,
      "ya": 2455,
      "screamed": 2456,
      "books": 2457,
      "lower": 2458,
      "disappeared": 2459,
      "pub": 2460,
      "peter": 2461,
      "learn": 2462,
      "bent": 2463,
      "var": 2464,
      "summer": 2465,
      "clen": 2466,
      "shifted": 2467,
      "bodies": 2468,
      "security": 2469,
      "powerful": 2470,
      "tele": 2471,
      "wing": 2472,
      "chase": 2473,
      "cause": 2474,
      "aur": 2475,
      "button": 2476,
      "loc": 2477,
      "unless": 2478,
      "taste": 2479,
      "grip": 2480,
      "echo": 2481,
      "inking": 2482,
      "polit": 2483,
      "aid": 2484,
      "velo": 2485,
      "poor": 2486,
      "shop": 2487,
      "kin": 2488,
      "absolute": 2489,
      "satis": 2490,
      "yer": 2491,
      "nine": 2492,
      "happening": 2493,
      "inted": 2494,
      "weir": 2495,
      "net": 2496,
      "trac": 2497,
      "offer": 2498,
      "station": 2499,
      "peace": 2500,
      "mured": 2501,
      "necess": 2502,
      "murmured": 2503,
      "gate": 2504,
      "nervous": 2505,
      "speaking": 2506,
      "careful": 2507,
      "level": 2508,
      "laid": 2509,
      "hallway": 2510,
      "exam": 2511,
      "lucky": 2512,
      "hol": 2513,
      "vern": 2514,
      "blan": 2515,
      "comput": 2516,
      "vant": 2517,
      "eventually": 2518,
      "windows": 2519,
      "belong": 2520,
      "suspe": 2521,
      "pink": 2522,
      "zane": 2523,
      "ress": 2524,
      "thom": 2525,
      "country": 2526,
      "foc": 2527,
      "gust": 2528,
      "truly": 2529,
      "enter": 2530,
      "sult": 2531,
      "issu": 2532,
      "rachel": 2533,
      "fortun": 2534,
      "twisted": 2535,
      "freyja": 2536,
      "humans": 2537,
      "gif": 2538,
      "harder": 2539,
      "ara": 2540,
      "ws": 2541,
      "race": 2542,
      "thumb": 2543,
      "ko": 2544,
      "sleeping": 2545,
      "ific": 2546,
      "iz": 2547,
      "desire": 2548,
      "pow": 2549,
      "ety": 2550,
      "interrup": 2551,
      "cook": 2552,
      "comfort": 2553,
      "relationship": 2554,
      "yours": 2555,
      "tro": 2556,
      "throw": 2557,
      "syste": 2558,
      "places": 2559,
      "west": 2560,
      "aling": 2561,
      "horri": 2562,
      "yelled": 2563,
      "via": 2564,
      "blind": 2565,
      "consider": 2566,
      "rubbed": 2567,
      "grim": 2568,
      "xi": 2569,
      "doesnt": 2570,
      "chan": 2571,
      "sidered": 2572,
      "considered": 2573,
      "pushing": 2574,
      "response": 2575,
      "ices": 2576,
      "smoke": 2577,
      "leather": 2578,
      "oli": 2579,
      "wine": 2580,
      "growing": 2581,
      "swallowed": 2582,
      "glo": 2583,
      "nod": 2584,
      "lines": 2585,
      "wash": 2586,
      "accept": 2587,
      "ience": 2588,
      "spend": 2589,
      "leep": 2590,
      "geor": 2591,
      "doll": 2592,
      "message": 2593,
      "asleep": 2594,
      "apolo": 2595,
      "theres": 2596,
      "viol": 2597,
      "attered": 2598,
      "tip": 2599,
      "bother": 2600,
      "birth": 2601,
      "difficult": 2602,
      "trip": 2603,
      "gard": 2604,
      "burned": 2605,
      "rance": 2606,
      "anda": 2607,
      "brand": 2608,
      "finding": 2609,
      "laughter": 2610,
      "hadnt": 2611,
      "rough": 2612,
      "dor": 2613,
      "funny": 2614,
      "smooth": 2615,
      "ability": 2616,
      "seriously": 2617,
      "join": 2618,
      "tent": 2619,
      "share": 2620,
      "astic": 2621,
      "pray": 2622,
      "leaning": 2623,
      "burning": 2624,
      "bound": 2625,
      "allow": 2626,
      "uncle": 2627,
      "miles": 2628,
      "aching": 2629,
      "waved": 2630,
      "craw": 2631,
      "blinked": 2632,
      "forest": 2633,
      "confused": 2634,
      "obvious": 2635,
      "quar": 2636,
      "bby": 2637,
      "uh": 2638,
      "feelings": 2639,
      "hotel": 2640,
      "frea": 2641,
      "natural": 2642,
      "island": 2643,
      "presence": 2644,
      "pier": 2645,
      "paul": 2646,
      "forth": 2647,
      "sarah": 2648,
      "anywhere": 2649,
      "private": 2650,
      "clock": 2651,
      "rolling": 2652,
      "appreci": 2653,
      "fallen": 2654,
      "leng": 2655,
      "possibly": 2656,
      "song": 2657,
      "club": 2658,
      "embarr": 2659,
      "inn": 2660,
      "ica": 2661,
      "weird": 2662,
      "lled": 2663,
      "reminded": 2664,
      "stretched": 2665,
      "embarrass": 2666,
      "bul": 2667,
      "const": 2668,
      "faces": 2669,
      "fran": 2670,
      "emma": 2671,
      "frank": 2672,
      "recor": 2673,
      "lunch": 2674,
      "refle": 2675,
      "iously": 2676,
      "north": 2677,
      "post": 2678,
      "ford": 2679,
      "shadows": 2680,
      "hidden": 2681,
      "enjoy": 2682,
      "listening": 2683,
      "psy": 2684,
      "aming": 2685,
      "ading": 2686,
      "bite": 2687,
      "palm": 2688,
      "impossible": 2689,
      "comb": 2690,
      "compl": 2691,
      "suppose": 2692,
      "gage": 2693,
      "lia": 2694,
      "lared": 2695,
      "sne": 2696,
      "cabin": 2697,
      "final": 2698,
      "gling": 2699,
      "shoes": 2700,
      "blu": 2701,
      "tot": 2702,
      "cul": 2703,
      "frust": 2704,
      "directly": 2705,
      "heads": 2706,
      "prison": 2707,
      "harm": 2708,
      "believed": 2709,
      "gho": 2710,
      "whats": 2711,
      "determin": 2712,
      "cious": 2713,
      "circle": 2714,
      "surface": 2715,
      "las": 2716,
      "feels": 2717,
      "served": 2718,
      "fish": 2719,
      "tim": 2720,
      "excuse": 2721,
      "ctions": 2722,
      "jacket": 2723,
      "shoved": 2724,
      "evil": 2725,
      "dep": 2726,
      "ounced": 2727,
      "bones": 2728,
      "gru": 2729,
      "wave": 2730,
      "concern": 2731,
      "chur": 2732,
      "ized": 2733,
      "ior": 2734,
      "experience": 2735,
      "drun": 2736,
      "wea": 2737,
      "elect": 2738,
      "doorway": 2739,
      "san": 2740,
      "claimed": 2741,
      "rap": 2742,
      "demanded": 2743,
      "acher": 2744,
      "argu": 2745,
      "woke": 2746,
      "rand": 2747,
      "interested": 2748,
      "wont": 2749,
      "entrance": 2750,
      "instru": 2751,
      "cars": 2752,
      "wheel": 2753,
      "tan": 2754,
      "produ": 2755,
      "extra": 2756,
      "commun": 2757,
      "pool": 2758,
      "seth": 2759,
      "repeated": 2760,
      "climbed": 2761,
      "size": 2762,
      "mortal": 2763,
      "focused": 2764,
      "warri": 2765,
      "ners": 2766,
      "loose": 2767,
      "bility": 2768,
      "cock": 2769,
      "crying": 2770,
      "fought": 2771,
      "memories": 2772,
      "reaching": 2773,
      "public": 2774,
      "storm": 2775,
      "tech": 2776,
      "feed": 2777,
      "approached": 2778,
      "corre": 2779,
      "wished": 2780,
      "amazing": 2781,
      "rie": 2782,
      "invest": 2783,
      "inch": 2784,
      "driving": 2785,
      "clut": 2786,
      "fly": 2787,
      "az": 2788,
      "faster": 2789,
      "bast": 2790,
      "hearing": 2791,
      "roof": 2792,
      "breathe": 2793,
      "gret": 2794,
      "totally": 2795,
      "nobody": 2796,
      "shield": 2797,
      "jim": 2798,
      "warning": 2799,
      "checked": 2800,
      "decision": 2801,
      "leap": 2802,
      "ai": 2803,
      "involved": 2804,
      "slammed": 2805,
      "issa": 2806,
      "riage": 2807,
      "lowered": 2808,
      "stat": 2809,
      "aunt": 2810,
      "thrust": 2811,
      "computer": 2812,
      "trail": 2813,
      "tossed": 2814,
      "bran": 2815,
      "hip": 2816,
      "hardly": 2817,
      "beer": 2818,
      "tat": 2819,
      "muscles": 2820,
      "inno": 2821,
      "dest": 2822,
      "iers": 2823,
      "centr": 2824,
      "ceiling": 2825,
      "treat": 2826,
      "luci": 2827,
      "naked": 2828,
      "stud": 2829,
      "unable": 2830,
      "cleared": 2831,
      "wers": 2832,
      "rush": 2833,
      "bon": 2834,
      "faced": 2835,
      "faint": 2836,
      "oken": 2837,
      "stiff": 2838,
      "grass": 2839,
      "welcome": 2840,
      "glasses": 2841,
      "perfectly": 2842,
      "struck": 2843,
      "engl": 2844,
      "yal": 2845,
      "iron": 2846,
      "concerned": 2847,
      "wrist": 2848,
      "fat": 2849,
      "fac": 2850,
      "alley": 2851,
      "spell": 2852,
      "scene": 2853,
      "fist": 2854,
      "mostly": 2855,
      "stage": 2856,
      "panic": 2857,
      "aff": 2858,
      "continue": 2859,
      "ordered": 2860,
      "gree": 2861,
      "south": 2862,
      "paid": 2863,
      "respect": 2864,
      "driver": 2865,
      "heading": 2866,
      "nur": 2867,
      "cip": 2868,
      "gut": 2869,
      "image": 2870,
      "jour": 2871,
      "rested": 2872,
      "killing": 2873,
      "anted": 2874,
      "yellow": 2875,
      "occas": 2876,
      "gras": 2877,
      "gle": 2878,
      "gasped": 2879,
      "hiding": 2880,
      "ryan": 2881,
      "kicked": 2882,
      "simon": 2883,
      "buy": 2884,
      "reaction": 2885,
      "weapon": 2886,
      "bitch": 2887,
      "twice": 2888,
      "brothers": 2889,
      "blow": 2890,
      "army": 2891,
      "blade": 2892,
      "bert": 2893,
      "plate": 2894,
      "pause": 2895,
      "disappo": 2896,
      "forgotten": 2897,
      "woods": 2898,
      "general": 2899,
      "ena": 2900,
      "ell": 2901,
      "church": 2902,
      "instantly": 2903,
      "logan": 2904,
      "ache": 2905,
      "wand": 2906,
      "yard": 2907,
      "beast": 2908,
      "oured": 2909,
      "tiv": 2910,
      "limp": 2911,
      "scan": 2912,
      "report": 2913,
      "incred": 2914,
      "trave": 2915,
      "henry": 2916,
      "recei": 2917,
      "fil": 2918,
      "purpose": 2919,
      "brushed": 2920,
      "swung": 2921,
      "anno": 2922,
      "effort": 2923,
      "tur": 2924,
      "rising": 2925,
      "subject": 2926,
      "squeezed": 2927,
      "mc": 2928,
      "promised": 2929,
      "breaking": 2930,
      "risk": 2931,
      "dete": 2932,
      "history": 2933,
      "lab": 2934,
      "separ": 2935,
      "joined": 2936,
      "terrible": 2937,
      "sical": 2938,
      "han": 2939,
      "mood": 2940,
      "acy": 2941,
      "thomas": 2942,
      "pper": 2943,
      "ignored": 2944,
      "current": 2945,
      "unk": 2946,
      "lift": 2947,
      "soldiers": 2948,
      "system": 2949,
      "ague": 2950,
      "gie": 2951,
      "regard": 2952,
      "breakfast": 2953,
      "smart": 2954,
      "female": 2955,
      "pieces": 2956,
      "joe": 2957,
      "fright": 2958,
      "suff": 2959,
      "tied": 2960,
      "type": 2961,
      "lessly": 2962,
      "ution": 2963,
      "flew": 2964,
      "built": 2965,
      "honey": 2966,
      "flying": 2967,
      "ury": 2968,
      "boots": 2969,
      "proud": 2970,
      "neigh": 2971,
      "hello": 2972,
      "luke": 2973,
      "suspic": 2974,
      "emi": 2975,
      "gab": 2976,
      "daniel": 2977,
      "upset": 2978,
      "lam": 2979,
      "surely": 2980,
      "gods": 2981,
      "month": 2982,
      "folded": 2983,
      "ades": 2984,
      "cil": 2985,
      "pared": 2986,
      "claire": 2987,
      "blur": 2988,
      "descri": 2989,
      "rushed": 2990,
      "rang": 2991,
      "exist": 2992,
      "lake": 2993,
      "excited": 2994,
      "worst": 2995,
      "grey": 2996,
      "prepared": 2997,
      "absolutely": 2998,
      "yan": 2999,
      "beach": 3000,
      "ava": 3001,
      "steady": 3002,
      "responsi": 3003,
      "ense": 3004,
      "vide": 3005,
      "bloody": 3006,
      "inct": 3007,
      "iday": 3008,
      "grown": 3009,
      "soci": 3010,
      "wedding": 3011,
      "ired": 3012,
      "parking": 3013,
      "ggling": 3014,
      "tightly": 3015,
      "osite": 3016,
      "plu": 3017,
      "dreams": 3018,
      "opposite": 3019,
      "skir": 3020,
      "wooden": 3021,
      "compan": 3022,
      "jerked": 3023,
      "fault": 3024,
      "fucking": 3025,
      "eyed": 3026,
      "nes": 3027,
      "iam": 3028,
      "leaves": 3029,
      "indeed": 3030,
      "ids": 3031,
      "length": 3032,
      "addy": 3033,
      "kate": 3034,
      "mail": 3035,
      "relax": 3036,
      "curled": 3037,
      "wards": 3038,
      "mental": 3039,
      "screaming": 3040,
      "contr": 3041,
      "ulous": 3042,
      "pop": 3043,
      "bone": 3044,
      "sions": 3045,
      "eating": 3046,
      "posed": 3047,
      "shape": 3048,
      "kissing": 3049,
      "prince": 3050,
      "interesting": 3051,
      "plans": 3052,
      "tails": 3053,
      "process": 3054,
      "nature": 3055,
      "exhaust": 3056,
      "huh": 3057,
      "nights": 3058,
      "trick": 3059,
      "sophi": 3060,
      "breast": 3061,
      "dut": 3062,
      "ude": 3063,
      "wis": 3064,
      "stun": 3065,
      "shift": 3066,
      "movement": 3067,
      "slept": 3068,
      "necessary": 3069,
      "rooms": 3070,
      "golden": 3071,
      "visible": 3072,
      "engine": 3073,
      "studied": 3074,
      "touching": 3075,
      "spirit": 3076,
      "spar": 3077,
      "rob": 3078,
      "searching": 3079,
      "ile": 3080,
      "haw": 3081,
      "hungry": 3082,
      "cker": 3083,
      "emotions": 3084,
      "narrow": 3085,
      "broad": 3086,
      "yester": 3087,
      "happens": 3088,
      "rise": 3089,
      "bridge": 3090,
      "creature": 3091,
      "easier": 3092,
      "train": 3093,
      "lack": 3094,
      "ashing": 3095,
      "sip": 3096,
      "fifteen": 3097,
      "knowledge": 3098,
      "released": 3099,
      "author": 3100,
      "accident": 3101,
      "ator": 3102,
      "losing": 3103,
      "ald": 3104,
      "mistake": 3105,
      "ception": 3106,
      "caused": 3107,
      "pol": 3108,
      "narrowed": 3109,
      "hig": 3110,
      "whose": 3111,
      "een": 3112,
      "dom": 3113,
      "murder": 3114,
      "godd": 3115,
      "deeper": 3116,
      "flashed": 3117,
      "clenched": 3118,
      "joy": 3119,
      "listened": 3120,
      "gal": 3121,
      "pressing": 3122,
      "regret": 3123,
      "angel": 3124,
      "tex": 3125,
      "tea": 3126,
      "sink": 3127,
      "growled": 3128,
      "gather": 3129,
      "wy": 3130,
      "yesterday": 3131,
      "bringing": 3132,
      "vering": 3133,
      "thinks": 3134,
      "dirt": 3135,
      "fren": 3136,
      "slu": 3137,
      "del": 3138,
      "ister": 3139,
      "brad": 3140,
      "recent": 3141,
      "square": 3142,
      "asy": 3143,
      "isnt": 3144,
      "bree": 3145,
      "fix": 3146,
      "sell": 3147,
      "slo": 3148,
      "opport": 3149,
      "decide": 3150,
      "knee": 3151,
      "avoid": 3152,
      "belt": 3153,
      "jamie": 3154,
      "cloud": 3155,
      "staying": 3156,
      "spun": 3157,
      "fortunately": 3158,
      "ease": 3159,
      "bble": 3160,
      "sour": 3161,
      "eu": 3162,
      "ceed": 3163,
      "ray": 3164,
      "awk": 3165,
      "ory": 3166,
      "steel": 3167,
      "utter": 3168,
      "william": 3169,
      "hesitated": 3170,
      "animal": 3171,
      "convin": 3172,
      "favorite": 3173,
      "liz": 3174,
      "lk": 3175,
      "wings": 3176,
      "indic": 3177,
      "effect": 3178,
      "local": 3179,
      "rust": 3180,
      "smiles": 3181,
      "text": 3182,
      "orig": 3183,
      "shoo": 3184,
      "planned": 3185,
      "tightened": 3186,
      "ics": 3187,
      "shocked": 3188,
      "dere": 3189,
      "anci": 3190,
      "works": 3191,
      "opportun": 3192,
      "scrat": 3193,
      "mart": 3194,
      "landed": 3195,
      "agger": 3196,
      "weapons": 3197,
      "pleased": 3198,
      "dirty": 3199,
      "occasion": 3200,
      "fal": 3201,
      "solid": 3202,
      "college": 3203,
      "major": 3204,
      "removed": 3205,
      "eyebrows": 3206,
      "belly": 3207,
      "ggle": 3208,
      "skill": 3209,
      "entirely": 3210,
      "19": 3211,
      "closing": 3212,
      "dun": 3213,
      "carrying": 3214,
      "hurry": 3215,
      "refused": 3216,
      "wonderful": 3217,
      "rupt": 3218,
      "fant": 3219,
      "chuckled": 3220,
      "double": 3221,
      "grate": 3222,
      "eliza": 3223,
      "ski": 3224,
      "keys": 3225,
      "hurried": 3226,
      "domin": 3227,
      "raw": 3228,
      "bye": 3229,
      "nearby": 3230,
      "bastard": 3231,
      "neighbor": 3232,
      "itor": 3233,
      "drawn": 3234,
      "zi": 3235,
      "recognized": 3236,
      "shud": 3237,
      "nate": 3238,
      "showing": 3239,
      "gives": 3240,
      "awkward": 3241,
      "matt": 3242,
      "dition": 3243,
      "calls": 3244,
      "rope": 3245,
      "verse": 3246,
      "everywhere": 3247,
      "knocked": 3248,
      "worn": 3249,
      "common": 3250,
      "breathed": 3251,
      "instant": 3252,
      "theyre": 3253,
      "shared": 3254,
      "mare": 3255,
      "suggested": 3256,
      "admitted": 3257,
      "tour": 3258,
      "hug": 3259,
      "shoot": 3260,
      "saved": 3261,
      "cow": 3262,
      "drunk": 3263,
      "charge": 3264,
      "charlie": 3265,
      "smir": 3266,
      "desperate": 3267,
      "gathered": 3268,
      "dare": 3269,
      "libr": 3270,
      "plane": 3271,
      "bank": 3272,
      "warmth": 3273,
      "gift": 3274,
      "ides": 3275,
      "simi": 3276,
      "comment": 3277,
      "cele": 3278,
      "answers": 3279,
      "otherwise": 3280,
      "glow": 3281,
      "mn": 3282,
      "horror": 3283,
      "bought": 3284,
      "spoken": 3285,
      "sending": 3286,
      "giant": 3287,
      "sexy": 3288,
      "leading": 3289,
      "ax": 3290,
      "lat": 3291,
      "pregn": 3292,
      "sac": 3293,
      "stories": 3294,
      "sucked": 3295,
      "success": 3296,
      "phe": 3297,
      "requi": 3298,
      "pure": 3299,
      "meaning": 3300,
      "inging": 3301,
      "deeply": 3302,
      "buried": 3303,
      "dragon": 3304,
      "intro": 3305,
      "support": 3306,
      "chief": 3307,
      "ork": 3308,
      "pred": 3309,
      "vious": 3310,
      "serv": 3311,
      "oo": 3312,
      "ius": 3313,
      "restaur": 3314,
      "heaven": 3315,
      "aches": 3316,
      "robe": 3317,
      "heavi": 3318,
      "groaned": 3319,
      "boss": 3320,
      "emily": 3321,
      "sher": 3322,
      "tear": 3323,
      "tran": 3324,
      "amoun": 3325,
      "drawing": 3326,
      "eleva": 3327,
      "spin": 3328,
      "iting": 3329,
      "marry": 3330,
      "spill": 3331,
      "reality": 3332,
      "flight": 3333,
      "tit": 3334,
      "letter": 3335,
      "knock": 3336,
      "beauty": 3337,
      "silently": 3338,
      "zzy": 3339,
      "pictures": 3340,
      "awake": 3341,
      "helping": 3342,
      "dragged": 3343,
      "grad": 3344,
      "mming": 3345,
      "prefer": 3346,
      "stir": 3347,
      "oking": 3348,
      "written": 3349,
      "drag": 3350,
      "swear": 3351,
      "accep": 3352,
      "alarm": 3353,
      "clas": 3354,
      "mic": 3355,
      "jeff": 3356,
      "acting": 3357,
      "myster": 3358,
      "reply": 3359,
      "unted": 3360,
      "ame": 3361,
      "innocent": 3362,
      "holl": 3363,
      "fifty": 3364,
      "ignor": 3365,
      "protest": 3366,
      "tice": 3367,
      "farm": 3368,
      "faded": 3369,
      "surrounded": 3370,
      "names": 3371,
      "imagined": 3372,
      "chat": 3373,
      "rus": 3374,
      "noah": 3375,
      "aked": 3376,
      "equ": 3377,
      "training": 3378,
      "eager": 3379,
      "origin": 3380,
      "laure": 3381,
      "lace": 3382,
      "intense": 3383,
      "service": 3384,
      "pulls": 3385,
      "***": 3386,
      "hanna": 3387,
      "brush": 3388,
      "attempt": 3389,
      "lily": 3390,
      "mater": 3391,
      "toes": 3392,
      "enty": 3393,
      "passing": 3394,
      "determined": 3395,
      "cig": 3396,
      "mentioned": 3397,
      "supp": 3398,
      "americ": 3399,
      "ordin": 3400,
      "sens": 3401,
      "block": 3402,
      "waves": 3403,
      "experien": 3404,
      "angle": 3405,
      "staff": 3406,
      "vul": 3407,
      "langu": 3408,
      "aband": 3409,
      "ssing": 3410,
      "wiped": 3411,
      "horses": 3412,
      "introdu": 3413,
      "ghost": 3414,
      "spark": 3415,
      "youve": 3416,
      "holy": 3417,
      "cop": 3418,
      "angled": 3419,
      "covering": 3420,
      "physical": 3421,
      "excite": 3422,
      "loss": 3423,
      "considering": 3424,
      "milit": 3425,
      "discovered": 3426,
      "voices": 3427,
      "aim": 3428,
      "pointing": 3429,
      "stars": 3430,
      "lee": 3431,
      "travel": 3432,
      "andre": 3433,
      "winter": 3434,
      "ancient": 3435,
      "occur": 3436,
      "pressure": 3437,
      "mmed": 3438,
      "disgust": 3439,
      "drinking": 3440,
      "sliding": 3441,
      "plenty": 3442,
      "officer": 3443,
      "cot": 3444,
      "richard": 3445,
      "sin": 3446,
      "movie": 3447,
      "slip": 3448,
      "rout": 3449,
      "study": 3450,
      "scow": 3451,
      "deck": 3452,
      "expecting": 3453,
      "witch": 3454,
      "younger": 3455,
      "spec": 3456,
      "fed": 3457,
      "tips": 3458,
      "curious": 3459,
      "tes": 3460,
      "crew": 3461,
      "streets": 3462,
      "enemy": 3463,
      "opportunity": 3464,
      "ander": 3465,
      "blame": 3466,
      "serve": 3467,
      "stream": 3468,
      "honor": 3469,
      "impres": 3470,
      "dozen": 3471,
      "mered": 3472,
      "heels": 3473,
      "organ": 3474,
      "crap": 3475,
      "glared": 3476,
      "ome": 3477,
      "lted": 3478,
      "jan": 3479,
      "excitement": 3480,
      "details": 3481,
      "jared": 3482,
      "condition": 3483,
      "itched": 3484,
      "interrupted": 3485,
      "members": 3486,
      "acted": 3487,
      "problems": 3488,
      "fab": 3489,
      "tha": 3490,
      "bastian": 3491,
      "throwing": 3492,
      "named": 3493,
      "spring": 3494,
      "lightly": 3495,
      "gin": 3496,
      "commit": 3497,
      "york": 3498,
      "rot": 3499,
      "match": 3500,
      "cous": 3501,
      "setting": 3502,
      "sport": 3503,
      "option": 3504,
      "cave": 3505,
      "auto": 3506,
      "badly": 3507,
      "isting": 3508,
      "tical": 3509,
      "relaxed": 3510,
      "tension": 3511,
      "iny": 3512,
      "affe": 3513,
      "boyfriend": 3514,
      "orders": 3515,
      "christmas": 3516,
      "terror": 3517,
      "safety": 3518,
      "incre": 3519,
      "abs": 3520,
      "anne": 3521,
      "flowers": 3522,
      "vince": 3523,
      "tv": 3524,
      "stronger": 3525,
      "split": 3526,
      "ships": 3527,
      "extre": 3528,
      "tore": 3529,
      "roman": 3530,
      "dge": 3531,
      "lucas": 3532,
      "cure": 3533,
      "swept": 3534,
      "apologi": 3535,
      "cassie": 3536,
      "gain": 3537,
      "audi": 3538,
      "blond": 3539,
      "kar": 3540,
      "charm": 3541,
      "kisses": 3542,
      "sey": 3543,
      "jane": 3544,
      "george": 3545,
      "alous": 3546,
      "lfri": 3547,
      "vehi": 3548,
      "correct": 3549,
      "ilities": 3550,
      "pissed": 3551,
      "nan": 3552,
      "becoming": 3553,
      "tucked": 3554,
      "assist": 3555,
      "page": 3556,
      "writing": 3557,
      "christian": 3558,
      "ffic": 3559,
      "features": 3560,
      "million": 3561,
      "girlfri": 3562,
      "thighs": 3563,
      "tower": 3564,
      "ado": 3565,
      "jesus": 3566,
      "temper": 3567,
      "failed": 3568,
      "frame": 3569,
      "corrid": 3570,
      "tony": 3571,
      "elevator": 3572,
      "manage": 3573,
      "choose": 3574,
      "council": 3575,
      "kylie": 3576,
      "olivia": 3577,
      "stern": 3578,
      "vio": 3579,
      "rian": 3580,
      "idi": 3581,
      "grave": 3582,
      "pace": 3583,
      "nowhere": 3584,
      "silk": 3585,
      "fusion": 3586,
      "english": 3587,
      "ext": 3588,
      "fixed": 3589,
      "norm": 3590,
      "laun": 3591,
      "inha": 3592,
      "facing": 3593,
      "flames": 3594,
      "ism": 3595,
      "evidence": 3596,
      "forty": 3597,
      "gly": 3598,
      "release": 3599,
      "ridic": 3600,
      "responded": 3601,
      "leader": 3602,
      "including": 3603,
      "firmly": 3604,
      "poured": 3605,
      "nal": 3606,
      "prove": 3607,
      "bitter": 3608,
      "smelled": 3609,
      "youll": 3610,
      "liam": 3611,
      "chill": 3612,
      "sebastian": 3613,
      "porch": 3614,
      "abrupt": 3615,
      "betray": 3616,
      "massive": 3617,
      "cum": 3618,
      "snor": 3619,
      "hawk": 3620,
      "assured": 3621,
      "lots": 3622,
      "castle": 3623,
      "irrit": 3624,
      "passion": 3625,
      "restaurant": 3626,
      "eyebrow": 3627,
      "bigger": 3628,
      "furi": 3629,
      "depart": 3630,
      "amount": 3631,
      "bird": 3632,
      "result": 3633,
      "starts": 3634,
      "twel": 3635,
      "gall": 3636,
      "twelve": 3637,
      "abby": 3638,
      "riel": 3639,
      "cared": 3640,
      "similar": 3641,
      "raced": 3642,
      "backed": 3643,
      "arch": 3644,
      "blake": 3645,
      "ession": 3646,
      "neath": 3647,
      "ffe": 3648,
      "inti": 3649,
      "pot": 3650,
      "signed": 3651,
      "struggled": 3652,
      "aret": 3653,
      "swee": 3654,
      "planning": 3655,
      "chick": 3656,
      "village": 3657,
      "asha": 3658,
      "guns": 3659,
      "pleasant": 3660,
      "bang": 3661,
      "bond": 3662,
      "ivy": 3663,
      "ignore": 3664,
      "marked": 3665,
      "lovely": 3666,
      "repor": 3667,
      "upstairs": 3668,
      "machine": 3669,
      "mous": 3670,
      "due": 3671,
      "blanket": 3672,
      "julian": 3673,
      "challen": 3674,
      "powers": 3675,
      "understanding": 3676,
      "__": 3677,
      "garden": 3678,
      "asse": 3679,
      "higher": 3680,
      "planet": 3681,
      "difference": 3682,
      "marriage": 3683,
      "gripped": 3684,
      "itude": 3685,
      "slide": 3686,
      "widened": 3687,
      "french": 3688,
      "parts": 3689,
      "ripped": 3690,
      "govern": 3691,
      "fang": 3692,
      "concentr": 3693,
      "east": 3694,
      "whenever": 3695,
      "tho": 3696,
      "creep": 3697,
      "fier": 3698,
      "zes": 3699,
      "mping": 3700,
      "papers": 3701,
      "extreme": 3702,
      "pad": 3703,
      "liqu": 3704,
      "parked": 3705,
      "magn": 3706,
      "intention": 3707,
      "consu": 3708,
      "guilt": 3709,
      "uncomfortable": 3710,
      "inches": 3711,
      "oce": 3712,
      "aly": 3713,
      "bay": 3714,
      "blank": 3715,
      "urge": 3716,
      "flood": 3717,
      "snar": 3718,
      "intell": 3719,
      "cale": 3720,
      "demons": 3721,
      "courage": 3722,
      "ckets": 3723,
      "belief": 3724,
      "whom": 3725,
      "request": 3726,
      "buck": 3727,
      "jealous": 3728,
      "purse": 3729,
      "sses": 3730,
      "wen": 3731,
      "briefly": 3732,
      "reasons": 3733,
      "adjust": 3734,
      "write": 3735,
      "upper": 3736,
      "relieved": 3737,
      "underneath": 3738,
      "insisted": 3739,
      "connor": 3740,
      "settle": 3741,
      "ero": 3742,
      "enjoyed": 3743,
      "vit": 3744,
      "capable": 3745,
      "plastic": 3746,
      "wolves": 3747,
      "resting": 3748,
      "monster": 3749,
      "practically": 3750,
      "handsome": 3751,
      "warned": 3752,
      "attrac": 3753,
      "survive": 3754,
      "gorge": 3755,
      "ert": 3756,
      "accor": 3757,
      "investig": 3758,
      "startled": 3759,
      "faith": 3760,
      "vac": 3761,
      "ns": 3762,
      "resist": 3763,
      "heavily": 3764,
      "lined": 3765,
      "sole": 3766,
      "mia": 3767,
      "library": 3768,
      "stack": 3769,
      "wow": 3770,
      "rubbing": 3771,
      "raise": 3772,
      "stopping": 3773,
      "confusion": 3774,
      "illu": 3775,
      "dancing": 3776,
      "cise": 3777,
      "colo": 3778,
      "balls": 3779,
      "tless": 3780,
      "radio": 3781,
      "arily": 3782,
      "profess": 3783,
      "camera": 3784,
      "blew": 3785,
      "ras": 3786,
      "agon": 3787,
      "dropping": 3788,
      "jace": 3789,
      "cash": 3790,
      "grateful": 3791,
      "connection": 3792,
      "clay": 3793,
      "amy": 3794,
      "pour": 3795,
      "anticip": 3796,
      "meal": 3797,
      "victori": 3798,
      "bleed": 3799,
      "cass": 3800,
      "clam": 3801,
      "rules": 3802,
      "nightmare": 3803,
      "merely": 3804,
      "occup": 3805,
      "iss": 3806,
      "normally": 3807,
      "nails": 3808,
      "elizabeth": 3809,
      "whel": 3810,
      "arti": 3811,
      "issue": 3812,
      "ounce": 3813,
      "convinced": 3814,
      "forgot": 3815,
      "agent": 3816,
      "nation": 3817,
      "cture": 3818,
      "waste": 3819,
      "desc": 3820,
      "intment": 3821,
      "host": 3822,
      "emplo": 3823,
      "rear": 3824,
      "ference": 3825,
      "nia": 3826,
      "jay": 3827,
      "mani": 3828,
      "sank": 3829,
      "satisf": 3830,
      "ashes": 3831,
      "develo": 3832,
      "swir": 3833,
      "sean": 3834,
      "thri": 3835,
      "vantage": 3836,
      "thrown": 3837,
      "charac": 3838,
      "iti": 3839,
      "nut": 3840,
      "stab": 3841,
      "activ": 3842,
      "meat": 3843,
      "julia": 3844,
      "ira": 3845,
      "contain": 3846,
      "josh": 3847,
      "hint": 3848,
      "tells": 3849,
      "pounding": 3850,
      "chain": 3851,
      "idding": 3852,
      "created": 3853,
      "regular": 3854,
      "iently": 3855,
      "horrible": 3856,
      "froze": 3857,
      "appearance": 3858,
      "belle": 3859,
      "honestly": 3860,
      "ffled": 3861,
      "symp": 3862,
      "picking": 3863,
      "nathan": 3864,
      "girlfriend": 3865,
      "creatures": 3866,
      "assumed": 3867,
      "cute": 3868,
      "obli": 3869,
      "pile": 3870,
      "tunnel": 3871,
      "cad": 3872,
      "shel": 3873,
      "relu": 3874,
      "guil": 3875,
      "connected": 3876,
      "glancing": 3877,
      "princess": 3878,
      "nest": 3879,
      "chamber": 3880,
      "weekend": 3881,
      "resc": 3882,
      "nods": 3883,
      "tery": 3884,
      "stumbled": 3885,
      "military": 3886,
      "reluct": 3887,
      "distur": 3888,
      "spine": 3889,
      "bob": 3890,
      "plus": 3891,
      "fired": 3892,
      "stands": 3893,
      "overwhel": 3894,
      "custo": 3895,
      "animals": 3896,
      "wan": 3897,
      "fashi": 3898,
      "flipped": 3899,
      "object": 3900,
      "unfortunately": 3901,
      "scri": 3902,
      "walks": 3903,
      "mans": 3904,
      "section": 3905,
      "surprising": 3906,
      "orange": 3907,
      "brit": 3908,
      "cost": 3909,
      "swift": 3910,
      "lungs": 3911,
      "style": 3912,
      "bry": 3913,
      "hero": 3914,
      "appreciate": 3915,
      "fists": 3916,
      "identi": 3917,
      "destroy": 3918,
      "fierce": 3919,
      "lone": 3920,
      "freed": 3921,
      "houses": 3922,
      "ians": 3923,
      "cheer": 3924,
      "ere": 3925,
      "pregnant": 3926,
      "clan": 3927,
      "ral": 3928,
      "grabbing": 3929,
      "beating": 3930,
      "awful": 3931,
      "somebody": 3932,
      "closet": 3933,
      "changing": 3934,
      "ouds": 3935,
      "fury": 3936,
      "acle": 3937,
      "clar": 3938,
      "chairs": 3939,
      "blon": 3940,
      "ano": 3941,
      "hugged": 3942,
      "glare": 3943,
      "sequ": 3944,
      "killer": 3945,
      "loudly": 3946,
      "expen": 3947,
      "weather": 3948,
      "daddy": 3949,
      "actions": 3950,
      "damned": 3951,
      "torn": 3952,
      "bags": 3953,
      "eddie": 3954,
      "deb": 3955,
      "bella": 3956,
      "furn": 3957,
      "pup": 3958,
      "shell": 3959,
      "carol": 3960,
      "searched": 3961,
      "tender": 3962,
      "events": 3963,
      "idly": 3964,
      "distant": 3965,
      "trembling": 3966,
      "buildings": 3967,
      "clouds": 3968,
      "nic": 3969,
      "inju": 3970,
      "ishment": 3971,
      "grandmother": 3972,
      "tam": 3973,
      "enger": 3974,
      "uttered": 3975,
      "mbs": 3976,
      "access": 3977,
      "taught": 3978,
      "sensation": 3979,
      "painting": 3980,
      "tol": 3981,
      "practice": 3982,
      "washed": 3983,
      "shakes": 3984,
      "ora": 3985,
      "ocean": 3986,
      "recognize": 3987,
      "tattoo": 3988,
      "tilted": 3989,
      "grant": 3990,
      "fate": 3991,
      "height": 3992,
      "polite": 3993,
      "dged": 3994,
      "20": 3995,
      "soo": 3996,
      "spi": 3997,
      "delic": 3998,
      "owned": 3999,
      "accepted": 4000,
      "rog": 4001,
      "temple": 4002,
      "ddy": 4003,
      "meas": 4004,
      "jose": 4005,
      "american": 4006,
      "equi": 4007,
      "curtain": 4008,
      "treated": 4009,
      "language": 4010,
      "istan": 4011,
      "frozen": 4012,
      "cred": 4013,
      "clothing": 4014,
      "price": 4015,
      "gorgeous": 4016,
      "fred": 4017,
      "riley": 4018,
      "warrior": 4019,
      "damage": 4020,
      "posse": 4021,
      "harsh": 4022,
      "elbow": 4023,
      "instinct": 4024,
      "shame": 4025,
      "skull": 4026,
      "sake": 4027,
      "crou": 4028,
      "mul": 4029,
      "ency": 4030,
      "mps": 4031,
      "tugged": 4032,
      "pless": 4033,
      "towel": 4034,
      "whir": 4035,
      "lust": 4036,
      "joke": 4037,
      "cracked": 4038,
      "witness": 4039,
      "jet": 4040,
      "rocks": 4041,
      "corridor": 4042,
      "dug": 4043,
      "stranger": 4044,
      "intended": 4045,
      "spotted": 4046,
      "distrac": 4047,
      "forgive": 4048,
      "dee": 4049,
      "beck": 4050,
      "loe": 4051,
      "breeze": 4052,
      "chose": 4053,
      "shy": 4054,
      "rated": 4055,
      "ez": 4056,
      "lifting": 4057,
      "matic": 4058,
      "address": 4059,
      "idiot": 4060,
      "vibr": 4061,
      "ignoring": 4062,
      "suspected": 4063,
      "damp": 4064,
      "cream": 4065,
      "grandfather": 4066,
      "swo": 4067,
      "load": 4068,
      "delight": 4069,
      "frustration": 4070,
      "judge": 4071,
      "pillow": 4072,
      "duty": 4073,
      "pretend": 4074,
      "balance": 4075,
      "sel": 4076,
      "downstairs": 4077,
      "stepping": 4078,
      "backward": 4079,
      "suck": 4080,
      "peered": 4081,
      "ridiculous": 4082,
      "gram": 4083,
      "knot": 4084,
      "escaped": 4085,
      "priest": 4086,
      "causing": 4087,
      "smaller": 4088,
      "whoever": 4089,
      "ishing": 4090,
      "guilty": 4091,
      "government": 4092,
      "puzz": 4093,
      "various": 4094,
      "logy": 4095,
      "gabriel": 4096,
      "received": 4097,
      "stunned": 4098,
      "leans": 4099,
      "snu": 4100,
      "rode": 4101,
      "ech": 4102,
      "desperately": 4103,
      "secrets": 4104,
      "reck": 4105,
      "derek": 4106,
      "celebr": 4107,
      "oped": 4108,
      "groan": 4109,
      "ops": 4110,
      "dawn": 4111,
      "lond": 4112,
      "hissed": 4113,
      "popped": 4114,
      "dread": 4115,
      "moves": 4116,
      "havi": 4117,
      "anting": 4118,
      "mug": 4119,
      "enjoying": 4120,
      "advantage": 4121,
      "dick": 4122,
      "farther": 4123,
      "asty": 4124,
      "notes": 4125,
      "fail": 4126,
      "uc": 4127,
      "parted": 4128,
      "attacked": 4129,
      "announced": 4130,
      "begun": 4131,
      "loving": 4132,
      "soldier": 4133,
      "points": 4134,
      "sisters": 4135,
      "egg": 4136,
      "chosen": 4137,
      "pulse": 4138,
      "professor": 4139,
      "palms": 4140,
      "bes": 4141,
      "partner": 4142,
      "pride": 4143,
      "pee": 4144,
      "kered": 4145,
      "statement": 4146,
      "cloth": 4147,
      "kend": 4148,
      "london": 4149,
      "trapped": 4150,
      "vet": 4151,
      "communic": 4152,
      "abruptly": 4153,
      "ium": 4154,
      "alright": 4155,
      "aren": 4156,
      "skirt": 4157,
      "nurse": 4158,
      "returning": 4159,
      "anx": 4160,
      "ences": 4161,
      "gesture": 4162,
      "total": 4163,
      "mars": 4164,
      "nah": 4165,
      "stones": 4166,
      "cts": 4167,
      "students": 4168,
      "lim": 4169,
      "mass": 4170,
      "terrified": 4171,
      "rule": 4172,
      "explan": 4173,
      "snat": 4174,
      "drifted": 4175,
      "ladies": 4176,
      "yanked": 4177,
      "aster": 4178,
      "eled": 4179,
      "gency": 4180,
      "marks": 4181,
      "sara": 4182,
      "muscle": 4183,
      "moan": 4184,
      "chloe": 4185,
      "landing": 4186,
      "bunch": 4187,
      "exhausted": 4188,
      "painful": 4189,
      "trent": 4190,
      "purple": 4191,
      "pha": 4192,
      "ressed": 4193,
      "dogs": 4194,
      "wro": 4195,
      "lur": 4196,
      "jax": 4197,
      "curse": 4198,
      "gger": 4199,
      "hook": 4200,
      "holds": 4201,
      "particularly": 4202,
      "sensed": 4203,
      "ctively": 4204,
      "unex": 4205,
      "bled": 4206,
      "shooting": 4207,
      "bust": 4208,
      "liter": 4209,
      "falls": 4210,
      "mies": 4211,
      "signs": 4212,
      "yo": 4213,
      "birthday": 4214,
      "tort": 4215,
      "target": 4216,
      "rhy": 4217,
      "gown": 4218,
      "acknow": 4219,
      "parti": 4220,
      "mountains": 4221,
      "bits": 4222,
      "photogra": 4223,
      "los": 4224,
      "marcus": 4225,
      "ware": 4226,
      "ura": 4227,
      "aks": 4228,
      "scott": 4229,
      "project": 4230,
      "larger": 4231,
      "circum": 4232,
      "checking": 4233,
      "licked": 4234,
      "blast": 4235,
      "venge": 4236,
      "sheet": 4237,
      "assa": 4238,
      "glowing": 4239,
      "gazed": 4240,
      "impat": 4241,
      "circ": 4242,
      "blonde": 4243,
      "sweep": 4244,
      "brilli": 4245,
      "echoed": 4246,
      "pment": 4247,
      "caut": 4248,
      "snorted": 4249,
      "10": 4250,
      "cris": 4251,
      "filling": 4252,
      "trace": 4253,
      "mask": 4254,
      "eling": 4255,
      "tress": 4256,
      "ador": 4257,
      "riding": 4258,
      "glimp": 4259,
      "sounding": 4260,
      "whit": 4261,
      "agged": 4262,
      "clue": 4263,
      "colored": 4264,
      "morgan": 4265,
      "arched": 4266,
      "bench": 4267,
      "garage": 4268,
      "bullet": 4269,
      "cutting": 4270,
      "bowl": 4271,
      "jas": 4272,
      "straightened": 4273,
      "footsteps": 4274,
      "envelo": 4275,
      "embarrassed": 4276,
      "vanished": 4277,
      "packed": 4278,
      "ality": 4279,
      "chol": 4280,
      "collar": 4281,
      "likes": 4282,
      "ugly": 4283,
      "experienced": 4284,
      "wink": 4285,
      "sooner": 4286,
      "aye": 4287,
      "vided": 4288,
      "deserve": 4289,
      "ckles": 4290,
      "halfway": 4291,
      "jacob": 4292,
      "stock": 4293,
      "sofa": 4294,
      "centu": 4295,
      "according": 4296,
      "bread": 4297,
      "ino": 4298,
      "racing": 4299,
      "map": 4300,
      "tables": 4301,
      "forcing": 4302,
      "pir": 4303,
      "icy": 4304,
      "istic": 4305,
      "conclu": 4306,
      "friendly": 4307,
      "satisfied": 4308,
      "speech": 4309,
      "numbers": 4310,
      "quit": 4311,
      "devil": 4312,
      "rate": 4313,
      "dies": 4314,
      "shade": 4315,
      "distr": 4316,
      "robert": 4317,
      "matters": 4318,
      "steve": 4319,
      "session": 4320,
      "alco": 4321,
      "satur": 4322,
      "profession": 4323,
      "victoria": 4324,
      "contemp": 4325,
      "approach": 4326,
      "colla": 4327,
      "tage": 4328,
      "mumbled": 4329,
      "convince": 4330,
      "catching": 4331,
      "itation": 4332,
      "task": 4333,
      "collaps": 4334,
      "eased": 4335,
      "rab": 4336,
      "cies": 4337,
      "exit": 4338,
      "dull": 4339,
      "wrap": 4340,
      "opin": 4341,
      "throughout": 4342,
      "hunt": 4343,
      "unlike": 4344,
      "inner": 4345,
      "stall": 4346,
      "fru": 4347,
      "kal": 4348,
      "grat": 4349,
      "everybody": 4350,
      "journey": 4351,
      "lucy": 4352,
      "hal": 4353,
      "intellig": 4354,
      "destroyed": 4355,
      "insane": 4356,
      "tapped": 4357,
      "violet": 4358,
      "billy": 4359,
      "bowed": 4360,
      "trained": 4361,
      "maggie": 4362,
      "version": 4363,
      "whispers": 4364,
      "steal": 4365,
      "nik": 4366,
      "craft": 4367,
      "silly": 4368,
      "dig": 4369,
      "remaining": 4370,
      "smith": 4371,
      "remy": 4372,
      "clearing": 4373,
      "paying": 4374,
      "sway": 4375,
      "ider": 4376,
      "sniff": 4377,
      "stured": 4378,
      "painted": 4379,
      "poison": 4380,
      "caleb": 4381,
      "helpless": 4382,
      "lauren": 4383,
      "havent": 4384,
      "retri": 4385,
      "enor": 4386,
      "gestured": 4387,
      "detective": 4388,
      "lotte": 4389,
      "period": 4390,
      "reli": 4391,
      "file": 4392,
      "protection": 4393,
      "butter": 4394,
      "grinning": 4395,
      "slapped": 4396,
      "gus": 4397,
      "cooper": 4398,
      "arrange": 4399,
      "jected": 4400,
      "cam": 4401,
      "lind": 4402,
      "frightened": 4403,
      "games": 4404,
      "wrote": 4405,
      "harry": 4406,
      "surrounding": 4407,
      "responsible": 4408,
      "images": 4409,
      "athan": 4410,
      "andra": 4411,
      "progre": 4412,
      "inten": 4413,
      "member": 4414,
      "cousin": 4415,
      "decor": 4416,
      "smack": 4417,
      "content": 4418,
      "chedu": 4419,
      "pple": 4420,
      "raising": 4421,
      "nap": 4422,
      "garion": 4423,
      "challenge": 4424,
      "fabric": 4425,
      "cliff": 4426,
      "tough": 4427,
      "ppy": 4428,
      "erie": 4429,
      "sively": 4430,
      "hunting": 4431,
      "luc": 4432,
      "manner": 4433,
      "strike": 4434,
      "former": 4435,
      "guessed": 4436,
      "possibility": 4437,
      "etern": 4438,
      "sunlight": 4439,
      "ibly": 4440,
      "pattern": 4441,
      "cere": 4442,
      "swell": 4443,
      "cursed": 4444,
      "crea": 4445,
      "recently": 4446,
      "tune": 4447,
      "argue": 4448,
      "sevent": 4449,
      "seeming": 4450,
      "medic": 4451,
      "punch": 4452,
      "attend": 4453,
      "agreement": 4454,
      "link": 4455,
      "cage": 4456,
      "copy": 4457,
      "thur": 4458,
      "drug": 4459,
      "cart": 4460,
      "conven": 4461,
      "cia": 4462,
      "sim": 4463,
      "limit": 4464,
      "hitting": 4465,
      "osity": 4466,
      "jonathan": 4467,
      "tristan": 4468,
      "senses": 4469,
      "dean": 4470,
      "gos": 4471,
      "thetic": 4472,
      "charles": 4473,
      "teach": 4474,
      "vehicle": 4475,
      "bows": 4476,
      "struggling": 4477,
      "keeps": 4478,
      "mere": 4479,
      "drank": 4480,
      "holly": 4481,
      "traffic": 4482,
      "fellow": 4483,
      "bec": 4484,
      "ffed": 4485,
      "vague": 4486,
      "exclaimed": 4487,
      "pected": 4488,
      "washing": 4489,
      "anged": 4490,
      "source": 4491,
      "sharply": 4492,
      "unexpected": 4493,
      "yards": 4494,
      "choco": 4495,
      "ourselves": 4496,
      "plat": 4497,
      "dumb": 4498,
      "location": 4499,
      "discuss": 4500,
      "raven": 4501,
      "neat": 4502,
      "prepar": 4503,
      "dining": 4504,
      "greet": 4505,
      "code": 4506,
      "andrew": 4507,
      "account": 4508,
      "cara": 4509,
      "chocolate": 4510,
      "circumst": 4511,
      "stroked": 4512,
      "hmm": 4513,
      "rum": 4514,
      "crystal": 4515,
      "gran": 4516,
      "driveway": 4517,
      "ake": 4518,
      "liquid": 4519,
      "occurred": 4520,
      "cops": 4521,
      "letters": 4522,
      "vas": 4523,
      "gwen": 4524,
      "closely": 4525,
      "bothered": 4526,
      "buzz": 4527,
      "gene": 4528,
      "rin": 4529,
      "proof": 4530,
      "weve": 4531,
      "avail": 4532,
      "remo": 4533,
      "ours": 4534,
      "ret": 4535,
      "sexual": 4536,
      "hay": 4537,
      "schedu": 4538,
      "remembering": 4539,
      "louder": 4540,
      "record": 4541,
      "ais": 4542,
      "ske": 4543,
      "explanation": 4544,
      "butt": 4545,
      "beard": 4546,
      "erson": 4547,
      "blink": 4548,
      "somewhat": 4549,
      "patted": 4550,
      "thunder": 4551,
      "display": 4552,
      "thern": 4553,
      "bolt": 4554,
      "snap": 4555,
      "palace": 4556,
      "covers": 4557,
      "replaced": 4558,
      "ified": 4559,
      "attached": 4560,
      "neare": 4561,
      "emon": 4562,
      "tenti": 4563,
      "theyd": 4564,
      "rett": 4565,
      "ram": 4566,
      "stan": 4567,
      "wren": 4568,
      "sacri": 4569,
      "lightning": 4570,
      "volun": 4571,
      "ji": 4572,
      "research": 4573,
      "placing": 4574,
      "birds": 4575,
      "royal": 4576,
      "crime": 4577,
      "assume": 4578,
      "whim": 4579,
      "radi": 4580,
      "slowed": 4581,
      "doubted": 4582,
      "dollars": 4583,
      "series": 4584,
      "omed": 4585,
      "behavi": 4586,
      "casual": 4587,
      "ordinary": 4588,
      "existence": 4589,
      "alec": 4590,
      "bbled": 4591,
      "gasp": 4592,
      "therine": 4593,
      "humor": 4594,
      "design": 4595,
      "spit": 4596,
      "struction": 4597,
      "moaned": 4598,
      "character": 4599,
      "fy": 4600,
      "complic": 4601,
      "paint": 4602,
      "gregor": 4603,
      "danny": 4604,
      "strand": 4605,
      "quarters": 4606,
      "accent": 4607,
      "charlotte": 4608,
      "shine": 4609,
      "cake": 4610,
      "armed": 4611,
      "sheets": 4612,
      "fasc": 4613,
      "nodding": 4614,
      "hundreds": 4615,
      "dating": 4616,
      "chee": 4617,
      "runs": 4618,
      "evan": 4619,
      "fangs": 4620,
      "president": 4621,
      "pend": 4622,
      "mbo": 4623,
      "werent": 4624,
      "flame": 4625,
      "maid": 4626,
      "uses": 4627,
      "distracted": 4628,
      "genu": 4629,
      "material": 4630,
      "wil": 4631,
      "happiness": 4632,
      "squir": 4633,
      "previous": 4634,
      "inkled": 4635,
      "invited": 4636,
      "core": 4637,
      "noted": 4638,
      "confidence": 4639,
      "amused": 4640,
      "mall": 4641,
      "lands": 4642,
      "amanda": 4643,
      "kidding": 4644,
      "eyel": 4645,
      "social": 4646,
      "trusted": 4647,
      "squeeze": 4648,
      "tick": 4649,
      "aver": 4650,
      "grasp": 4651,
      "abandoned": 4652,
      "pockets": 4653,
      "mud": 4654,
      "esome": 4655,
      "drinks": 4656,
      "teasing": 4657,
      "fence": 4658,
      "bleeding": 4659,
      "unconscious": 4660,
      "goddam": 4661,
      "fake": 4662,
      "arette": 4663,
      "stops": 4664,
      "physic": 4665,
      "stam": 4666,
      "uce": 4667,
      "cigarette": 4668,
      "studying": 4669,
      "shore": 4670,
      "boun": 4671,
      "laughs": 4672,
      "television": 4673,
      "confident": 4674,
      "loves": 4675,
      "bomb": 4676,
      "stated": 4677,
      "grit": 4678,
      "veins": 4679,
      "eral": 4680,
      "trailed": 4681,
      "threatened": 4682,
      "teacher": 4683,
      "alice": 4684,
      "quis": 4685,
      "holiday": 4686,
      "ellie": 4687,
      "brick": 4688,
      "lon": 4689,
      "tured": 4690,
      "extremely": 4691,
      "haired": 4692,
      "paris": 4693,
      "sees": 4694,
      "zomb": 4695,
      "colin": 4696,
      "property": 4697,
      "tank": 4698,
      "drake": 4699,
      "loyal": 4700,
      "numb": 4701,
      "loaded": 4702,
      "tire": 4703,
      "sophie": 4704,
      "tend": 4705,
      "bac": 4706,
      "strode": 4707,
      "panties": 4708,
      "martin": 4709,
      "seated": 4710,
      "amber": 4711,
      "afford": 4712,
      "offering": 4713,
      "deserved": 4714,
      "genuine": 4715,
      "serge": 4716,
      "shri": 4717,
      "indi": 4718,
      "gavin": 4719,
      "original": 4720,
      "disappointed": 4721,
      "shrug": 4722,
      "wicked": 4723,
      "cali": 4724,
      "video": 4725,
      "mile": 4726,
      "prevent": 4727,
      "logical": 4728,
      "extended": 4729,
      "till": 4730,
      "nin": 4731,
      "murmur": 4732,
      "claws": 4733,
      "secure": 4734,
      "kell": 4735,
      "kay": 4736,
      "slipping": 4737,
      "dylan": 4738,
      "pon": 4739,
      "exposed": 4740,
      "suspect": 4741,
      "kevin": 4742,
      "sneak": 4743,
      "hannah": 4744,
      "exe": 4745,
      "bis": 4746,
      "uri": 4747,
      "todd": 4748,
      "maintain": 4749,
      "sters": 4750,
      "crete": 4751,
      "eleven": 4752,
      "rings": 4753,
      "rifle": 4754,
      "swing": 4755,
      "medical": 4756,
      "amuse": 4757,
      "stub": 4758,
      "finn": 4759,
      "grief": 4760,
      "bars": 4761,
      "universe": 4762,
      "wes": 4763,
      "sheriff": 4764,
      "nerves": 4765,
      "dat": 4766,
      "shots": 4767,
      "fingertips": 4768,
      "sity": 4769,
      "bren": 4770,
      "enormous": 4771,
      "centuries": 4772,
      "susan": 4773,
      "justin": 4774,
      "appears": 4775,
      "tab": 4776,
      "****": 4777,
      "freedom": 4778,
      "beam": 4779,
      "curiosity": 4780,
      "feared": 4781,
      "tape": 4782,
      "surve": 4783,
      "mum": 4784,
      "rack": 4785,
      "thousands": 4786,
      "anybody": 4787,
      "hopefully": 4788,
      "victor": 4789,
      "vulner": 4790,
      "rolls": 4791,
      "swallow": 4792,
      "background": 4793,
      "belonged": 4794,
      "dal": 4795,
      "jordan": 4796,
      "span": 4797,
      "shim": 4798,
      "rier": 4799,
      "xy": 4800,
      "izing": 4801,
      "mix": 4802,
      "invisible": 4803,
      "pand": 4804,
      "shining": 4805,
      "spending": 4806,
      "brilliant": 4807,
      "shuddered": 4808,
      "11": 4809,
      "saturday": 4810,
      "daemon": 4811,
      "expensive": 4812,
      "cruel": 4813,
      "realizing": 4814,
      "friday": 4815,
      "allowing": 4816,
      "midnight": 4817,
      "shif": 4818,
      "confir": 4819,
      "tions": 4820,
      "trap": 4821,
      "potenti": 4822,
      "ggy": 4823,
      "ize": 4824,
      "champ": 4825,
      "assass": 4826,
      "answering": 4827,
      "immortal": 4828,
      "tries": 4829,
      "jerk": 4830,
      "mph": 4831,
      "delicate": 4832,
      "univers": 4833,
      "warriors": 4834,
      "nervously": 4835,
      "roar": 4836,
      "passenger": 4837,
      "sensit": 4838,
      "cards": 4839,
      "forms": 4840,
      "nis": 4841,
      "sized": 4842,
      "deliber": 4843,
      "ticing": 4844,
      "positive": 4845,
      "collapsed": 4846,
      "kelly": 4847,
      "guests": 4848,
      "inched": 4849,
      "roo": 4850,
      "rushing": 4851,
      "rhyth": 4852,
      "shivered": 4853,
      "eighteen": 4854,
      "shorts": 4855,
      "spinning": 4856,
      "admir": 4857,
      "spray": 4858,
      "approaching": 4859,
      "mates": 4860,
      "lling": 4861,
      "summon": 4862,
      "advice": 4863,
      "aria": 4864,
      "rome": 4865,
      "constant": 4866,
      "excell": 4867,
      "adv": 4868,
      "gment": 4869,
      "mont": 4870,
      "hurting": 4871,
      "elle": 4872,
      "horiz": 4873,
      "emerged": 4874,
      "jackson": 4875,
      "shown": 4876,
      "aging": 4877,
      "choked": 4878,
      "required": 4879,
      "jeremy": 4880,
      "pher": 4881,
      "darling": 4882,
      "ature": 4883,
      "strea": 4884,
      "electri": 4885,
      "defense": 4886,
      "actual": 4887,
      "screams": 4888,
      "wrists": 4889,
      "entertain": 4890,
      "brian": 4891,
      "iona": 4892,
      "crawled": 4893,
      "sarcas": 4894,
      "virgin": 4895,
      "complex": 4896,
      "states": 4897,
      "hunger": 4898,
      "liar": 4899,
      "create": 4900,
      "proceed": 4901,
      "overhead": 4902,
      "precious": 4903,
      "exploded": 4904,
      "disappear": 4905,
      "corp": 4906,
      "bored": 4907,
      "flicked": 4908,
      "barn": 4909,
      "market": 4910,
      "crimin": 4911,
      "fairly": 4912,
      "jenny": 4913,
      "fea": 4914,
      "rare": 4915,
      "pity": 4916,
      "isy": 4917,
      "desig": 4918,
      "opinion": 4919,
      "digging": 4920,
      "rod": 4921,
      "arse": 4922,
      "scanned": 4923,
      "impressed": 4924,
      "atively": 4925,
      "alle": 4926,
      "spare": 4927,
      "ien": 4928,
      "commander": 4929,
      "vine": 4930,
      "heartbeat": 4931,
      "hammer": 4932,
      "bike": 4933,
      "leon": 4934,
      "solve": 4935,
      "basket": 4936,
      "revealed": 4937,
      "shopping": 4938,
      "soften": 4939,
      "drugs": 4940,
      "stable": 4941,
      "glit": 4942,
      "tracks": 4943,
      "zar": 4944,
      "society": 4945,
      "gul": 4946,
      "elder": 4947,
      "circumstances": 4948,
      "lately": 4949,
      "desert": 4950,
      "assure": 4951,
      "knu": 4952,
      "mixed": 4953,
      "drops": 4954,
      "informed": 4955,
      "knelt": 4956,
      "charged": 4957,
      "raged": 4958,
      "dic": 4959,
      "kyle": 4960,
      "boxes": 4961,
      "available": 4962,
      "eaten": 4963,
      "passage": 4964,
      "sunday": 4965,
      "gathering": 4966,
      "dante": 4967,
      "erica": 4968,
      "concrete": 4969,
      "matthe": 4970,
      "vier": 4971,
      "colt": 4972,
      "kel": 4973,
      "flick": 4974,
      "johnny": 4975,
      "roland": 4976,
      "uniform": 4977,
      "knight": 4978,
      "mason": 4979,
      "lover": 4980,
      "dia": 4981,
      "mack": 4982,
      "shr": 4983,
      "vast": 4984,
      "compe": 4985,
      "wounds": 4986,
      "mil": 4987,
      "devon": 4988,
      "changes": 4989,
      "addition": 4990,
      "brave": 4991,
      "resu": 4992,
      "trad": 4993,
      "ued": 4994,
      "flushed": 4995,
      "breaths": 4996,
      "sons": 4997,
      "sits": 4998,
      "chor": 4999,
      "moder": 5000,
      "jessi": 5001,
      "patient": 5002,
      "fying": 5003,
      "detail": 5004,
      "scare": 5005,
      "saving": 5006,
      "tch": 5007,
      "motioned": 5008,
      "sandwi": 5009,
      "guest": 5010,
      "shouting": 5011,
      "crash": 5012,
      "wrapping": 5013,
      "fol": 5014,
      "forming": 5015,
      "tasted": 5016,
      "dagger": 5017,
      "biting": 5018,
      "infe": 5019,
      "department": 5020,
      "dude": 5021,
      "react": 5022,
      "fog": 5023,
      "plant": 5024,
      "delicious": 5025,
      "sages": 5026,
      "dragging": 5027,
      "annoyed": 5028,
      "corners": 5029,
      "rey": 5030,
      "deny": 5031,
      "trunk": 5032,
      "credit": 5033,
      "lux": 5034,
      "orgas": 5035,
      "ats": 5036,
      "helen": 5037,
      "knocking": 5038,
      "appropri": 5039,
      "embrace": 5040,
      "bour": 5041,
      "itors": 5042,
      "amusement": 5043,
      "magaz": 5044,
      "wri": 5045,
      "terms": 5046,
      "punched": 5047,
      "cis": 5048,
      "thus": 5049,
      "appearing": 5050,
      "colors": 5051,
      "inspe": 5052,
      "sphere": 5053,
      "iture": 5054,
      "rip": 5055,
      "ifer": 5056,
      "tyler": 5057,
      "diam": 5058,
      "bride": 5059,
      "spa": 5060,
      "teased": 5061,
      "waving": 5062,
      "bris": 5063,
      "stubborn": 5064,
      "arrow": 5065,
      "dave": 5066,
      "brushing": 5067,
      "jar": 5068,
      "shaped": 5069,
      "hunters": 5070,
      "coast": 5071,
      "talent": 5072,
      "season": 5073,
      "gered": 5074,
      "ita": 5075,
      "remains": 5076,
      "julie": 5077,
      "patch": 5078,
      "glances": 5079,
      "sixteen": 5080,
      "thread": 5081,
      "conce": 5082,
      "chicken": 5083,
      "branches": 5084,
      "clary": 5085,
      "foo": 5086,
      "hid": 5087,
      "motor": 5088,
      "swam": 5089,
      "zard": 5090,
      "singing": 5091,
      "bin": 5092,
      "airport": 5093,
      "tily": 5094,
      "veled": 5095,
      "achi": 5096,
      "zach": 5097,
      "flir": 5098,
      "flowing": 5099,
      "yep": 5100,
      "behavior": 5101,
      "disbelief": 5102,
      "revealing": 5103,
      "site": 5104,
      "foolish": 5105,
      "goodbye": 5106,
      "pages": 5107,
      "edges": 5108,
      "ribs": 5109,
      "sob": 5110,
      "ideas": 5111,
      "shattered": 5112,
      "reaches": 5113,
      "milk": 5114,
      "backs": 5115,
      "cases": 5116,
      "vies": 5117,
      "kane": 5118,
      "hh": 5119,
      "miser": 5120,
      "symbo": 5121,
      "nasty": 5122,
      "quinn": 5123,
      "sparhawk": 5124,
      "reveal": 5125,
      "winked": 5126,
      "rapidly": 5127,
      "trevor": 5128,
      "weal": 5129,
      "random": 5130,
      "fashion": 5131,
      "seats": 5132,
      "satisfaction": 5133,
      "complain": 5134,
      "tighter": 5135,
      "switch": 5136,
      "sentence": 5137,
      "kim": 5138,
      "furniture": 5139,
      "compli": 5140,
      "circles": 5141,
      "famous": 5142,
      "ridge": 5143,
      "clau": 5144,
      "thusi": 5145,
      "melissa": 5146,
      "12": 5147,
      "wishing": 5148,
      "national": 5149,
      "bart": 5150,
      "llo": 5151,
      "incredible": 5152,
      "jenn": 5153,
      "precise": 5154,
      "pistol": 5155,
      "survived": 5156,
      "oused": 5157,
      "ues": 5158,
      "threatening": 5159,
      "dealing": 5160,
      "syn": 5161,
      "jill": 5162,
      "biggest": 5163,
      "ruth": 5164,
      "begins": 5165,
      "opens": 5166,
      "shane": 5167,
      "stuffed": 5168,
      "exper": 5169,
      "effor": 5170,
      "ette": 5171,
      "whipped": 5172,
      "asted": 5173,
      "incident": 5174,
      "shifting": 5175,
      "skills": 5176,
      "backpack": 5177,
      "string": 5178,
      "cocked": 5179,
      "gang": 5180,
      "quarter": 5181,
      "remote": 5182,
      "oak": 5183,
      "furious": 5184,
      "scattered": 5185,
      "valent": 5186,
      "range": 5187,
      "crept": 5188,
      "shiver": 5189,
      "enthusi": 5190,
      "trade": 5191,
      "anxious": 5192,
      "marie": 5193,
      "clutched": 5194,
      "becca": 5195,
      "handful": 5196,
      "cupped": 5197,
      "strip": 5198,
      "argument": 5199,
      "toe": 5200,
      "habit": 5201,
      "rh": 5202,
      "sleeve": 5203,
      "rude": 5204,
      "minds": 5205,
      "matically": 5206,
      "ingly": 5207,
      "gear": 5208,
      "calmly": 5209,
      "remove": 5210,
      "happily": 5211,
      "screw": 5212,
      "puts": 5213,
      "tipped": 5214,
      "growl": 5215,
      "pear": 5216,
      "roger": 5217,
      "kicking": 5218,
      "coach": 5219,
      "provided": 5220,
      "rese": 5221,
      "spat": 5222,
      "issues": 5223,
      "refer": 5224,
      "prep": 5225,
      "signific": 5226,
      "literally": 5227,
      "duncan": 5228,
      "stretch": 5229,
      "career": 5230,
      "sidewalk": 5231,
      "grunted": 5232,
      "role": 5233,
      "arranged": 5234,
      "student": 5235,
      "impression": 5236,
      "apologize": 5237,
      "makeup": 5238,
      "learning": 5239,
      "nope": 5240,
      "ille": 5241,
      "valley": 5242,
      "joseph": 5243,
      "scen": 5244,
      "winced": 5245,
      "oil": 5246,
      "patrick": 5247,
      "emergency": 5248,
      "advent": 5249,
      "march": 5250,
      "youd": 5251,
      "exchange": 5252,
      "theart": 5253,
      "driven": 5254,
      "ii": 5255,
      "russi": 5256,
      "orn": 5257,
      "unusual": 5258,
      "athy": 5259,
      "throne": 5260,
      "emotional": 5261,
      "predic": 5262,
      "eved": 5263,
      "arrive": 5264,
      "psycho": 5265,
      "gers": 5266,
      "hum": 5267,
      "sweetheart": 5268,
      "families": 5269,
      "fruit": 5270,
      "snake": 5271,
      "miranda": 5272,
      "danced": 5273,
      "exer": 5274,
      "pel": 5275,
      "freaking": 5276,
      "tale": 5277,
      "defen": 5278,
      "climbing": 5279,
      "enemies": 5280,
      "football": 5281,
      "savan": 5282,
      "impro": 5283,
      "rowed": 5284,
      "owner": 5285,
      "sensitive": 5286,
      "cloak": 5287,
      "crossing": 5288,
      "shudder": 5289,
      "injured": 5290,
      "vement": 5291,
      "gates": 5292,
      "mode": 5293,
      "individ": 5294,
      "mothers": 5295,
      "carpet": 5296,
      "jail": 5297,
      "roared": 5298,
      "hau": 5299,
      "pig": 5300,
      "upward": 5301,
      "naturally": 5302,
      "cough": 5303,
      "marble": 5304,
      "hop": 5305,
      "aine": 5306,
      "aston": 5307,
      "fourth": 5308,
      "ville": 5309,
      "equipment": 5310,
      "lawyer": 5311,
      "rescue": 5312,
      "ceremon": 5313,
      "haven": 5314,
      "rene": 5315,
      "encer": 5316,
      "jessica": 5317,
      "lobby": 5318,
      "program": 5319,
      "alert": 5320,
      "defend": 5321,
      "based": 5322,
      "stolen": 5323,
      "mini": 5324,
      "bio": 5325,
      "hollow": 5326,
      "struggle": 5327,
      "remark": 5328,
      "term": 5329,
      "freak": 5330,
      "floating": 5331,
      "angling": 5332,
      "vices": 5333,
      "vity": 5334,
      "owe": 5335,
      "greeted": 5336,
      "recall": 5337,
      "interview": 5338,
      "cheese": 5339,
      "professional": 5340,
      "sugar": 5341,
      "wounded": 5342,
      "ducked": 5343,
      "musc": 5344,
      "gradu": 5345,
      "closest": 5346,
      "execut": 5347,
      "directions": 5348,
      "protected": 5349,
      "katie": 5350,
      "stool": 5351,
      "edward": 5352,
      "officers": 5353,
      "illumin": 5354,
      "ruin": 5355,
      "torture": 5356,
      "iest": 5357,
      "hank": 5358,
      "shortly": 5359,
      "upright": 5360,
      "alien": 5361,
      "anticipation": 5362,
      "cti": 5363,
      "crad": 5364,
      "dried": 5365,
      "separate": 5366,
      "bile": 5367,
      "guide": 5368,
      "counted": 5369,
      "fled": 5370,
      "jumping": 5371,
      "mpled": 5372,
      "sail": 5373,
      "alexander": 5374,
      "glimpse": 5375,
      "sele": 5376,
      "males": 5377,
      "heather": 5378,
      "occupied": 5379,
      "perman": 5380,
      "ashe": 5381,
      "movements": 5382,
      "brut": 5383,
      "drawer": 5384,
      "ffs": 5385,
      "fathers": 5386,
      "giggled": 5387,
      "chased": 5388,
      "unknown": 5389,
      "crowded": 5390,
      "cling": 5391,
      "lamp": 5392,
      "lucien": 5393,
      "crashed": 5394,
      "duke": 5395,
      "excellent": 5396,
      "nearest": 5397,
      "boot": 5398,
      "gil": 5399,
      "shove": 5400,
      "rail": 5401,
      "matthew": 5402,
      "arian": 5403,
      "frustrated": 5404,
      "realm": 5405,
      "glor": 5406,
      "halt": 5407,
      "idge": 5408,
      "tub": 5409,
      "oul": 5410,
      "century": 5411,
      "awesome": 5412,
      "darted": 5413,
      "aran": 5414,
      "addle": 5415,
      "curve": 5416,
      "sadness": 5417,
      "stroke": 5418,
      "rs": 5419,
      "mama": 5420,
      "jesse": 5421,
      "twin": 5422,
      "flower": 5423,
      "begged": 5424,
      "sucking": 5425,
      "strate": 5426,
      "ruined": 5427,
      "dish": 5428,
      "rumor": 5429,
      "lex": 5430,
      "bullshit": 5431,
      "bud": 5432,
      "candle": 5433,
      "deadly": 5434,
      "sti": 5435,
      "jewel": 5436,
      "rarely": 5437,
      "scout": 5438,
      "bald": 5439,
      "casually": 5440,
      "swore": 5441,
      "treas": 5442,
      "dart": 5443,
      "zza": 5444,
      "discover": 5445,
      "disappointment": 5446,
      "aron": 5447,
      "affair": 5448,
      "feather": 5449,
      "lane": 5450,
      "percent": 5451,
      "consequ": 5452,
      "yelling": 5453,
      "tara": 5454,
      "stained": 5455,
      "bore": 5456,
      "colu": 5457,
      "healthy": 5458,
      "shows": 5459,
      "comm": 5460,
      "mattered": 5461,
      "attractive": 5462,
      "heated": 5463,
      "suspicious": 5464,
      "admi": 5465,
      "snarled": 5466,
      "twisting": 5467,
      "ec": 5468,
      "frequ": 5469,
      "permission": 5470,
      "elena": 5471,
      "jai": 5472,
      "erup": 5473,
      "jean": 5474,
      "clicked": 5475,
      "complicated": 5476,
      "garrett": 5477,
      "limbs": 5478,
      "shor": 5479,
      "wandered": 5480,
      "andy": 5481,
      "roy": 5482,
      "tempor": 5483,
      "function": 5484,
      "18": 5485,
      "trash": 5486,
      "mild": 5487,
      "agony": 5488,
      "alcohol": 5489,
      "absor": 5490,
      "pretending": 5491,
      "pounded": 5492,
      "mos": 5493,
      "entry": 5494,
      "fancy": 5495,
      "adrian": 5496,
      "folks": 5497,
      "settling": 5498,
      "cleaning": 5499,
      "erin": 5500,
      "serving": 5501,
      "gid": 5502,
      "vert": 5503,
      "iga": 5504,
      "progress": 5505,
      "sten": 5506,
      "forces": 5507,
      "circled": 5508,
      "rows": 5509,
      "flashing": 5510,
      "mechan": 5511,
      "vulnerable": 5512,
      "molly": 5513,
      "university": 5514,
      "provide": 5515,
      "aline": 5516,
      "zer": 5517,
      "holden": 5518,
      "swiftly": 5519,
      "kers": 5520,
      "wire": 5521,
      "psychi": 5522,
      "accompl": 5523,
      "docu": 5524,
      "goddess": 5525,
      "aust": 5526,
      "victim": 5527,
      "sergeant": 5528,
      "sophia": 5529,
      "advan": 5530,
      "existed": 5531,
      "sharing": 5532,
      "kendra": 5533,
      "basement": 5534,
      "moist": 5535,
      "armor": 5536,
      "elbows": 5537,
      "stares": 5538,
      "posing": 5539,
      "blowing": 5540,
      "violent": 5541,
      "stole": 5542,
      "aidan": 5543,
      "leapt": 5544,
      "crouched": 5545,
      "surge": 5546,
      "spencer": 5547,
      "possessed": 5548,
      "mari": 5549,
      "babe": 5550,
      "sideways": 5551,
      "mystery": 5552,
      "sav": 5553,
      "contract": 5554,
      "screwed": 5555,
      "imper": 5556,
      "potential": 5557,
      "rena": 5558,
      "holes": 5559,
      "lawn": 5560,
      "influ": 5561,
      "affection": 5562,
      "lang": 5563,
      "gide": 5564,
      "owen": 5565,
      "mattress": 5566,
      "panick": 5567,
      "associ": 5568,
      "tessa": 5569,
      "ore": 5570,
      "dock": 5571,
      "audience": 5572,
      "flag": 5573,
      "thorough": 5574,
      "ratt": 5575,
      "movies": 5576,
      "official": 5577,
      "suppor": 5578,
      "companion": 5579,
      "individual": 5580,
      "ives": 5581,
      "director": 5582,
      "justice": 5583,
      "alter": 5584,
      "reass": 5585,
      "tradition": 5586,
      "uncertain": 5587,
      "greg": 5588,
      "scrambled": 5589,
      "scary": 5590,
      "reception": 5591,
      "attempted": 5592,
      "kinds": 5593,
      "represent": 5594,
      "swinging": 5595,
      "confirmed": 5596,
      "pilot": 5597,
      "plun": 5598,
      "healing": 5599,
      "suffer": 5600,
      "health": 5601,
      "nad": 5602,
      "tay": 5603,
      "greater": 5604,
      "chances": 5605,
      "tensed": 5606,
      "stag": 5607,
      "estab": 5608,
      "reluctantly": 5609,
      "contents": 5610,
      "arrival": 5611,
      "horizon": 5612,
      "boring": 5613,
      "photograph": 5614,
      "frowning": 5615,
      "appropriate": 5616,
      "endless": 5617,
      "inting": 5618,
      "hesitation": 5619,
      "patience": 5620,
      "mercy": 5621,
      "begging": 5622,
      "chaos": 5623,
      "therefore": 5624,
      "decent": 5625,
      "heli": 5626,
      "kings": 5627,
      "raz": 5628,
      "sets": 5629,
      "whispering": 5630,
      "swords": 5631,
      "cort": 5632,
      "blocks": 5633,
      "gideon": 5634,
      "modern": 5635,
      "signal": 5636,
      "pac": 5637,
      "adding": 5638,
      "eleg": 5639,
      "approval": 5640,
      "jess": 5641,
      "cult": 5642,
      "useless": 5643,
      "romantic": 5644,
      "lisa": 5645,
      "incl": 5646,
      "lonely": 5647,
      "waking": 5648,
      "souls": 5649,
      "grandma": 5650,
      "multi": 5651,
      "balcon": 5652,
      "darkened": 5653,
      "tate": 5654,
      "maje": 5655,
      "fields": 5656,
      "incredibly": 5657,
      "gabe": 5658,
      "clutching": 5659,
      "intent": 5660,
      "buddy": 5661,
      "worthy": 5662,
      "civi": 5663,
      "pron": 5664,
      "unsure": 5665,
      "melted": 5666,
      "assistant": 5667,
      "stress": 5668,
      "route": 5669,
      "trembled": 5670,
      "spilled": 5671,
      "impact": 5672,
      "succeed": 5673,
      "sting": 5674,
      "solved": 5675,
      "laura": 5676,
      "flies": 5677,
      "reflection": 5678,
      "classes": 5679,
      "pursu": 5680,
      "swim": 5681,
      "hooked": 5682,
      "supplies": 5683,
      "captured": 5684,
      "community": 5685,
      "anto": 5686,
      "ragged": 5687,
      "pouring": 5688,
      "somed": 5689,
      "bron": 5690,
      "traveled": 5691,
      "drown": 5692,
      "angers": 5693,
      "curved": 5694,
      "shiny": 5695,
      "salt": 5696,
      "cade": 5697,
      "constantly": 5698,
      "fascin": 5699,
      "carved": 5700,
      "sedu": 5701,
      "apple": 5702,
      "crown": 5703,
      "fairy": 5704,
      "toi": 5705,
      "blinking": 5706,
      "ully": 5707,
      "neighborhood": 5708,
      "typic": 5709,
      "expert": 5710,
      "envelope": 5711,
      "uary": 5712,
      "aries": 5713,
      "orgasm": 5714,
      "crit": 5715,
      "xic": 5716,
      "hills": 5717,
      "located": 5718,
      "magical": 5719,
      "aloud": 5720,
      "idy": 5721,
      "tons": 5722,
      "prick": 5723,
      "protective": 5724,
      "sheep": 5725,
      "useful": 5726,
      "pinned": 5727,
      "snatched": 5728,
      "straw": 5729,
      "daw": 5730,
      "vels": 5731,
      "carriage": 5732,
      "explosion": 5733,
      "prepare": 5734,
      "berry": 5735,
      "stefan": 5736,
      "attitude": 5737,
      "physically": 5738,
      "confess": 5739,
      "america": 5740,
      "violence": 5741,
      "needing": 5742,
      "moonlight": 5743,
      "sheer": 5744,
      "dipped": 5745,
      "syd": 5746,
      "cleaned": 5747,
      "attr": 5748,
      "jimmy": 5749,
      "meredith": 5750,
      "soaked": 5751,
      "asm": 5752,
      "abilities": 5753,
      "intensity": 5754,
      "knuckles": 5755,
      "thirteen": 5756,
      "gur": 5757,
      "30": 5758,
      "wipe": 5759,
      "tack": 5760,
      "monday": 5761,
      "highway": 5762,
      "false": 5763,
      "breasts": 5764,
      "hired": 5765,
      "pete": 5766,
      "werewolf": 5767,
      "lion": 5768,
      "omi": 5769,
      "photos": 5770,
      "doc": 5771,
      "alo": 5772,
      "items": 5773,
      "stark": 5774,
      "smirk": 5775,
      "zel": 5776,
      "imagination": 5777,
      "countered": 5778,
      "twist": 5779,
      "wherever": 5780,
      "lid": 5781,
      "curls": 5782,
      "bold": 5783,
      "chica": 5784,
      "establ": 5785,
      "loun": 5786,
      "ption": 5787,
      "15": 5788,
      "stiffened": 5789,
      "friendship": 5790,
      "vik": 5791,
      "dripping": 5792,
      "bubble": 5793,
      "ads": 5794,
      "mae": 5795,
      "flung": 5796,
      "quir": 5797,
      "prior": 5798,
      "mentally": 5799,
      "kha": 5800,
      "slumped": 5801,
      "declared": 5802,
      "tted": 5803,
      "ggles": 5804,
      "abor": 5805,
      "traced": 5806,
      "branch": 5807,
      "spite": 5808,
      "cit": 5809,
      "cel": 5810,
      "scowled": 5811,
      "proved": 5812,
      "contained": 5813,
      "pizza": 5814,
      "web": 5815,
      "jury": 5816,
      "eh": 5817,
      "theory": 5818,
      "jessie": 5819,
      "stirred": 5820,
      "shaft": 5821,
      "figures": 5822,
      "syl": 5823,
      "subst": 5824,
      "grimaced": 5825,
      "aph": 5826,
      "stroking": 5827,
      "planted": 5828,
      "science": 5829,
      "waters": 5830,
      "initi": 5831,
      "zoe": 5832,
      "nar": 5833,
      "servant": 5834,
      "central": 5835,
      "laptop": 5836,
      "swollen": 5837,
      "awa": 5838,
      "gym": 5839,
      "hurts": 5840,
      "fork": 5841,
      "rever": 5842,
      "itching": 5843,
      "bryn": 5844,
      "annie": 5845,
      "suffering": 5846,
      "unting": 5847,
      "revol": 5848,
      "nipple": 5849,
      "insist": 5850,
      "surprisingly": 5851,
      "sticking": 5852,
      "arrog": 5853,
      "weed": 5854,
      "clung": 5855,
      "ddled": 5856,
      "laying": 5857,
      "raging": 5858,
      "corpor": 5859,
      "trigger": 5860,
      "twins": 5861,
      "safely": 5862,
      "responsibility": 5863,
      "delive": 5864,
      "ppers": 5865,
      "lesson": 5866,
      "harr": 5867,
      "servants": 5868,
      "leo": 5869,
      "gover": 5870,
      "traveling": 5871,
      "encou": 5872,
      "device": 5873,
      "properly": 5874,
      "gripping": 5875,
      "sible": 5876,
      "estate": 5877,
      "thal": 5878,
      "custom": 5879,
      "kn": 5880,
      "reput": 5881,
      "noble": 5882,
      "maria": 5883,
      "ril": 5884,
      "gres": 5885,
      "spreading": 5886,
      "theless": 5887,
      "rhythm": 5888,
      "scarlet": 5889,
      "suite": 5890,
      "warn": 5891,
      "fourteen": 5892,
      "ada": 5893,
      "click": 5894,
      "taylor": 5895,
      "brandon": 5896,
      "dging": 5897,
      "compared": 5898,
      "lena": 5899,
      "shone": 5900,
      "shelf": 5901,
      "separated": 5902,
      "oming": 5903,
      "stain": 5904,
      "murdered": 5905,
      "zation": 5906,
      "flowed": 5907,
      "ffin": 5908,
      "united": 5909,
      "ffy": 5910,
      "sore": 5911,
      "rocked": 5912,
      "isaac": 5913,
      "flic": 5914,
      "utterly": 5915,
      "scree": 5916,
      "highly": 5917,
      "delivered": 5918,
      "unit": 5919,
      "dane": 5920,
      "fond": 5921,
      "chuckle": 5922,
      "keeper": 5923,
      "dwar": 5924,
      "ankle": 5925,
      "mounted": 5926,
      "caring": 5927,
      "jennifer": 5928,
      "sweater": 5929,
      "karen": 5930,
      "specific": 5931,
      "drained": 5932,
      "childhood": 5933,
      "occasionally": 5934,
      "educ": 5935,
      "blocked": 5936,
      "della": 5937,
      "brings": 5938,
      "uten": 5939,
      "personally": 5940,
      "meth": 5941,
      "nels": 5942,
      "daisy": 5943,
      "math": 5944,
      "tearing": 5945,
      "spirits": 5946,
      "rounded": 5947,
      "bind": 5948,
      "lump": 5949,
      "crushed": 5950,
      "dall": 5951,
      "ryder": 5952,
      "aaron": 5953,
      "nerve": 5954,
      "tier": 5955,
      "selfish": 5956,
      "ringing": 5957,
      "locks": 5958,
      "seek": 5959,
      "mond": 5960,
      "backwards": 5961,
      "strained": 5962,
      "youth": 5963,
      "crawl": 5964,
      "funeral": 5965,
      "solution": 5966,
      "balcony": 5967,
      "foreign": 5968,
      "preferred": 5969,
      "exchanged": 5970,
      "counting": 5971,
      "courty": 5972,
      "slack": 5973,
      "refuse": 5974,
      "client": 5975,
      "zie": 5976,
      "facts": 5977,
      "chicago": 5978,
      "journal": 5979,
      "continues": 5980,
      "offici": 5981,
      "jenks": 5982,
      "scars": 5983,
      "protecting": 5984,
      "cries": 5985,
      "monitor": 5986,
      "mson": 5987,
      "dreamed": 5988,
      "overwhelming": 5989,
      "sally": 5990,
      "instin": 5991,
      "smirked": 5992,
      "melan": 5993,
      "grade": 5994,
      "clever": 5995,
      "tac": 5996,
      "ix": 5997,
      "example": 5998,
      "wiping": 5999,
      "kidna": 6000,
      "wildly": 6001,
      "bbie": 6002,
      "slave": 6003,
      "eggs": 6004,
      "dex": 6005,
      "assign": 6006,
      "melo": 6007,
      "lynn": 6008,
      "adren": 6009,
      "introduced": 6010,
      "devo": 6011,
      "surren": 6012,
      "vincent": 6013,
      "employe": 6014,
      "cen": 6015,
      "bid": 6016,
      "carter": 6017,
      "repeat": 6018,
      "acknowled": 6019,
      "blown": 6020,
      "pony": 6021,
      "sought": 6022,
      "joining": 6023,
      "clin": 6024,
      "gloves": 6025,
      "exception": 6026,
      "exhaled": 6027,
      "bend": 6028,
      "booth": 6029,
      "plates": 6030,
      "stretching": 6031,
      "strangely": 6032,
      "border": 6033,
      "tops": 6034,
      "cavern": 6035,
      "volu": 6036,
      "discussion": 6037,
      "questioned": 6038,
      "oning": 6039,
      "brook": 6040,
      "staircase": 6041,
      "revenge": 6042,
      "cycle": 6043,
      "shelter": 6044,
      "ida": 6045,
      "tics": 6046,
      "cotton": 6047,
      "panting": 6048,
      "divor": 6049,
      "dragons": 6050,
      "popul": 6051,
      "____": 6052,
      "matched": 6053,
      "entering": 6054,
      "sofia": 6055,
      "magnus": 6056,
      "leads": 6057,
      "grind": 6058,
      "avoiding": 6059,
      "dressing": 6060,
      "ceive": 6061,
      "cafe": 6062,
      "controlled": 6063,
      "preparing": 6064,
      "shouldnt": 6065,
      "angels": 6066,
      "techno": 6067,
      "spider": 6068,
      "gentleman": 6069,
      "suffe": 6070,
      "anxi": 6071,
      "louis": 6072,
      "steam": 6073,
      "nett": 6074,
      "mou": 6075,
      "anxiety": 6076,
      "mili": 6077,
      "aiden": 6078,
      "recogn": 6079,
      "jude": 6080,
      "pounds": 6081,
      "mysterious": 6082,
      "heel": 6083,
      "calcul": 6084,
      "doctors": 6085,
      "successful": 6086,
      "taller": 6087,
      "slamming": 6088,
      "concentrate": 6089,
      "courtyard": 6090,
      "switched": 6091,
      "damon": 6092,
      "brace": 6093,
      "aa": 6094,
      "puzzled": 6095,
      "lighting": 6096,
      "torted": 6097,
      "directed": 6098,
      "fare": 6099,
      "oliver": 6100,
      "pod": 6101,
      "tag": 6102,
      "tren": 6103,
      "lah": 6104,
      "distri": 6105,
      "rily": 6106,
      "bottles": 6107,
      "guit": 6108,
      "spraw": 6109,
      "babies": 6110,
      "mali": 6111,
      "compet": 6112,
      "seventeen": 6113,
      "observed": 6114,
      "necklace": 6115,
      "alpha": 6116,
      "privacy": 6117,
      "ripp": 6118,
      "soothing": 6119,
      "14": 6120,
      "fits": 6121,
      "meter": 6122,
      "candy": 6123,
      "miche": 6124,
      "seed": 6125,
      "stake": 6126,
      "ros": 6127,
      "crashing": 6128,
      "native": 6129,
      "ases": 6130,
      "buttons": 6131,
      "prey": 6132,
      "grabs": 6133,
      "hopes": 6134,
      "defeat": 6135,
      "cooking": 6136,
      "structure": 6137,
      "corn": 6138,
      "flip": 6139,
      "suffered": 6140,
      "accus": 6141,
      "onel": 6142,
      "transfer": 6143,
      "schedule": 6144,
      "flickered": 6145,
      "bullets": 6146,
      "nichol": 6147,
      "ud": 6148,
      "outfit": 6149,
      "shoe": 6150,
      "squeezing": 6151,
      "bobby": 6152,
      "miracle": 6153,
      "vivi": 6154,
      "kir": 6155,
      "miserable": 6156,
      "related": 6157,
      "routine": 6158,
      "slap": 6159,
      "idently": 6160,
      "cheap": 6161,
      "breed": 6162,
      "deter": 6163,
      "bounced": 6164,
      "messages": 6165,
      "leaders": 6166,
      "visited": 6167,
      "trial": 6168,
      "sale": 6169,
      "goddamn": 6170,
      "tangled": 6171,
      "califor": 6172,
      "ik": 6173,
      "hatred": 6174,
      "velvet": 6175,
      "immediate": 6176,
      "ites": 6177,
      "degree": 6178,
      "tossing": 6179,
      "interior": 6180,
      "dreaming": 6181,
      "chasing": 6182,
      "feli": 6183,
      "monsters": 6184,
      "ginger": 6185,
      "aimed": 6186,
      "europe": 6187,
      "meg": 6188,
      "bush": 6189,
      "addic": 6190,
      "nostri": 6191,
      "bury": 6192,
      "instructions": 6193,
      "nina": 6194,
      "muffled": 6195,
      "latest": 6196,
      "charming": 6197,
      "eternity": 6198,
      "drift": 6199,
      "neg": 6200,
      "sadly": 6201,
      "asper": 6202,
      "cautiously": 6203,
      "fortune": 6204,
      "cane": 6205,
      "spor": 6206,
      "micro": 6207,
      "commanded": 6208,
      "included": 6209,
      "nail": 6210,
      "intru": 6211,
      "gam": 6212,
      "ely": 6213,
      "mbles": 6214,
      "intelligence": 6215,
      "questioning": 6216,
      "mistress": 6217,
      "muse": 6218,
      "effe": 6219,
      "smells": 6220,
      "finds": 6221,
      "engaged": 6222,
      "atest": 6223,
      "sche": 6224,
      "volunte": 6225,
      "believing": 6226,
      "sack": 6227,
      "lexi": 6228,
      "punishment": 6229,
      "damien": 6230,
      "coo": 6231,
      "seeking": 6232,
      "vable": 6233,
      "consciousness": 6234,
      "equally": 6235,
      "flashlight": 6236,
      "invitation": 6237,
      "prophe": 6238,
      "enna": 6239,
      "suits": 6240,
      "bie": 6241,
      "sorts": 6242,
      "someday": 6243,
      "ww": 6244,
      "toilet": 6245,
      "respe": 6246,
      "impressive": 6247,
      "floated": 6248,
      "flared": 6249,
      "handing": 6250,
      "swimming": 6251,
      "currently": 6252,
      "compre": 6253,
      "greatest": 6254,
      "daily": 6255,
      "comprehen": 6256,
      "operation": 6257,
      "boards": 6258,
      "grasped": 6259,
      "scratched": 6260,
      "ify": 6261,
      "manipul": 6262,
      "feeding": 6263,
      "hearts": 6264,
      "nak": 6265,
      "shoving": 6266,
      "mitch": 6267,
      "popular": 6268,
      "quired": 6269,
      "eline": 6270,
      "squad": 6271,
      "hem": 6272,
      "saman": 6273,
      "nuts": 6274,
      "insu": 6275,
      "indicated": 6276,
      "ella": 6277,
      "attering": 6278,
      "territory": 6279,
      "underground": 6280,
      "cameron": 6281,
      "hire": 6282,
      "warmed": 6283,
      "cain": 6284,
      "toby": 6285,
      "tiger": 6286,
      "descended": 6287,
      "ulously": 6288,
      "fires": 6289,
      "california": 6290,
      "scient": 6291,
      "chim": 6292,
      "legal": 6293,
      "hits": 6294,
      "crush": 6295,
      "thorne": 6296,
      "loo": 6297,
      "fen": 6298,
      "shrie": 6299,
      "regardless": 6300,
      "dared": 6301,
      "worlds": 6302,
      "tast": 6303,
      "laws": 6304,
      "engage": 6305,
      "ee": 6306,
      "underwear": 6307,
      "flee": 6308,
      "bage": 6309,
      "fleet": 6310,
      "investigation": 6311,
      "waitress": 6312,
      "phones": 6313,
      "dallas": 6314,
      "dale": 6315,
      "grounds": 6316,
      "ables": 6317,
      "species": 6318,
      "shirts": 6319,
      "ladder": 6320,
      "intently": 6321,
      "measure": 6322,
      "iana": 6323,
      "gill": 6324,
      "fever": 6325,
      "intri": 6326,
      "manager": 6327,
      "deliver": 6328,
      "frost": 6329,
      "vari": 6330,
      "13": 6331,
      "visions": 6332,
      "neil": 6333,
      "roads": 6334,
      "bump": 6335,
      "lifetime": 6336,
      "techn": 6337,
      "replace": 6338,
      "jenna": 6339,
      "gues": 6340,
      "newspa": 6341,
      "decl": 6342,
      "knob": 6343,
      "southern": 6344,
      "katherine": 6345,
      "slender": 6346,
      "glaring": 6347,
      "comforting": 6348,
      "clasped": 6349,
      "afterward": 6350,
      "sinking": 6351,
      "agents": 6352,
      "goal": 6353,
      "pierce": 6354,
      "glowed": 6355,
      "jones": 6356,
      "compound": 6357,
      "sacrifice": 6358,
      "ankles": 6359,
      "rant": 6360,
      "england": 6361,
      "require": 6362,
      "carl": 6363,
      "pretended": 6364,
      "options": 6365,
      "intimate": 6366,
      "dusty": 6367,
      "activity": 6368,
      "column": 6369,
      "cuts": 6370,
      "decisions": 6371,
      "anta": 6372,
      "platform": 6373,
      "thankfully": 6374,
      "ias": 6375,
      "crun": 6376,
      "amelia": 6377,
      "outer": 6378,
      "creating": 6379,
      "sixty": 6380,
      "newspaper": 6381,
      "dag": 6382,
      "bilities": 6383,
      "mie": 6384,
      "pitch": 6385,
      "reflected": 6386,
      "nicole": 6387,
      "jah": 6388,
      "adrenaline": 6389,
      "barrel": 6390,
      "designed": 6391,
      "prisoner": 6392,
      "slick": 6393,
      "grumbled": 6394,
      "model": 6395,
      "inevit": 6396,
      "nostrils": 6397,
      "tooth": 6398,
      "shaky": 6399,
      "atop": 6400,
      "senior": 6401,
      "darker": 6402,
      "mayor": 6403,
      "results": 6404,
      "rafe": 6405,
      "samantha": 6406,
      "jobs": 6407,
      "escort": 6408,
      "scratch": 6409,
      "callum": 6410,
      "dated": 6411,
      "mighty": 6412,
      "hut": 6413,
      "cups": 6414,
      "twitched": 6415,
      "deliberately": 6416,
      "intend": 6417,
      "groups": 6418,
      "draped": 6419,
      "hart": 6420,
      "joking": 6421,
      "persu": 6422,
      "folding": 6423,
      "wrinkled": 6424,
      "authority": 6425,
      "oping": 6426,
      "regis": 6427,
      "affected": 6428,
      "sydney": 6429,
      "soap": 6430,
      "monica": 6431,
      "penet": 6432,
      "described": 6433,
      "walker": 6434,
      "wels": 6435,
      "fears": 6436,
      "sniffed": 6437,
      "method": 6438,
      "kingdom": 6439,
      "blades": 6440,
      "ults": 6441,
      "cameras": 6442,
      "betrayed": 6443,
      "barked": 6444,
      "tims": 6445,
      "magazine": 6446,
      "posses": 6447,
      "triu": 6448,
      "active": 6449,
      "records": 6450,
      "aisle": 6451,
      "itali": 6452,
      "pted": 6453,
      "locker": 6454,
      "scor": 6455,
      "shapes": 6456,
      "matching": 6457,
      "efforts": 6458,
      "wagon": 6459,
      "ouch": 6460,
      "acles": 6461,
      "worrying": 6462,
      "dammit": 6463,
      "sunshine": 6464,
      "agne": 6465,
      "ashamed": 6466,
      "thie": 6467,
      "yle": 6468,
      "helmet": 6469,
      "weakness": 6470,
      "confirm": 6471,
      "data": 6472,
      "awe": 6473,
      "curtains": 6474,
      "comfortably": 6475,
      "zero": 6476,
      "roughly": 6477,
      "lighter": 6478,
      "squinted": 6479,
      "quo": 6480,
      "recalled": 6481,
      "relent": 6482,
      "rut": 6483,
      "protested": 6484,
      "bbling": 6485,
      "restra": 6486,
      "smoking": 6487,
      "inhaled": 6488,
      "pipe": 6489,
      "flooded": 6490,
      "arc": 6491,
      "adjusted": 6492,
      "chains": 6493,
      "prayed": 6494,
      "shelves": 6495,
      "mobile": 6496,
      "shallow": 6497,
      "stif": 6498,
      "oddly": 6499,
      "reported": 6500,
      "lieuten": 6501,
      "demanding": 6502,
      "inge": 6503,
      "produced": 6504,
      "jung": 6505,
      "stripped": 6506,
      "inda": 6507,
      "sang": 6508,
      "stephan": 6509,
      "describe": 6510,
      "reasonable": 6511,
      "dome": 6512,
      "union": 6513,
      "examined": 6514,
      "electric": 6515,
      "unlocked": 6516,
      "reputation": 6517,
      "cord": 6518,
      "rocky": 6519,
      "alled": 6520,
      "kins": 6521,
      "ceremony": 6522,
      "carm": 6523,
      "fade": 6524,
      "pine": 6525,
      "value": 6526,
      "rein": 6527,
      "humili": 6528,
      "guitar": 6529,
      "brightly": 6530,
      "delay": 6531,
      "insult": 6532,
      "veget": 6533,
      "landsca": 6534,
      "reports": 6535,
      "caroline": 6536,
      "subtle": 6537,
      "gem": 6538,
      "increasing": 6539,
      "supply": 6540,
      "sandwich": 6541,
      "suic": 6542,
      "floors": 6543,
      "vere": 6544,
      "tug": 6545,
      "zzled": 6546,
      "fortunate": 6547,
      "assault": 6548,
      "guaran": 6549,
      "parties": 6550,
      "collection": 6551,
      "player": 6552,
      "guided": 6553,
      "cah": 6554,
      "increased": 6555,
      "alongside": 6556,
      "conference": 6557,
      "assassin": 6558,
      "jonas": 6559,
      "tap": 6560,
      "flush": 6561,
      "avoided": 6562,
      "savannah": 6563,
      "flor": 6564,
      "ende": 6565,
      "whirled": 6566,
      "mock": 6567,
      "elise": 6568,
      "continuing": 6569,
      "irritated": 6570,
      "ranch": 6571,
      "shouts": 6572,
      "juice": 6573,
      "nicholas": 6574,
      "eva": 6575,
      "chant": 6576,
      "counts": 6577,
      "contempl": 6578,
      "vaguely": 6579,
      "plants": 6580,
      "psychic": 6581,
      "dishes": 6582,
      "victory": 6583,
      "blush": 6584,
      "servation": 6585,
      "zzle": 6586,
      "cushi": 6587,
      "seemingly": 6588,
      "files": 6589,
      "reward": 6590,
      "fading": 6591,
      "triumph": 6592,
      "embarrassment": 6593,
      "gritted": 6594,
      "railing": 6595,
      "colonel": 6596,
      "panicked": 6597,
      "bushes": 6598,
      "hoarse": 6599,
      "dollar": 6600,
      "assuming": 6601,
      "lick": 6602,
      "fron": 6603,
      "majesty": 6604,
      "limited": 6605,
      "stephen": 6606,
      "enne": 6607,
      "langdon": 6608,
      "sports": 6609,
      "curl": 6610,
      "gazing": 6611,
      "annoying": 6612,
      "dove": 6613,
      "victims": 6614,
      "mour": 6615,
      "suspicion": 6616,
      "gasping": 6617,
      "atic": 6618,
      "formal": 6619,
      "ffing": 6620,
      "lingering": 6621,
      "thouse": 6622,
      "tugging": 6623,
      "typical": 6624,
      "intimid": 6625,
      "witches": 6626,
      "horn": 6627,
      "acade": 6628,
      "basically": 6629,
      "sensu": 6630,
      "princi": 6631,
      "melt": 6632,
      "acqu": 6633,
      "spots": 6634,
      "lting": 6635,
      "condu": 6636,
      "propped": 6637,
      "wha": 6638,
      "determination": 6639,
      "annoy": 6640,
      "quality": 6641,
      "bark": 6642,
      "realization": 6643,
      "cabinet": 6644,
      "spear": 6645,
      "curt": 6646,
      "erection": 6647,
      "copter": 6648,
      "anth": 6649,
      "seam": 6650,
      "accur": 6651,
      "needle": 6652,
      "instinctively": 6653,
      "scoo": 6654,
      "steering": 6655,
      "haunted": 6656,
      "cured": 6657,
      "amazed": 6658,
      "clip": 6659,
      "combat": 6660,
      "mering": 6661,
      "gary": 6662,
      "western": 6663,
      "snapping": 6664,
      "grac": 6665,
      "campus": 6666,
      "peering": 6667,
      "vil": 6668,
      "toast": 6669,
      "tled": 6670,
      "minor": 6671,
      "tube": 6672,
      "jeep": 6673,
      "exasper": 6674,
      "breathless": 6675,
      "rocking": 6676,
      "diamond": 6677,
      "mented": 6678,
      "ku": 6679,
      "~~": 6680,
      "sno": 6681,
      "lizz": 6682,
      "fireplace": 6683,
      "adult": 6684,
      "cate": 6685,
      "juni": 6686,
      "nora": 6687,
      "prayer": 6688,
      "noticing": 6689,
      "dur": 6690,
      "inged": 6691,
      "butto": 6692,
      "weep": 6693,
      "caution": 6694,
      "giggle": 6695,
      "fus": 6696,
      "ona": 6697,
      "grandpa": 6698,
      "alie": 6699,
      "slit": 6700,
      "indust": 6701,
      "film": 6702,
      "nam": 6703,
      "daylight": 6704,
      "corpse": 6705,
      "buying": 6706,
      "000": 6707,
      "arguing": 6708,
      "studi": 6709,
      "defe": 6710,
      "siren": 6711,
      "angrily": 6712,
      "okes": 6713,
      "print": 6714,
      "dash": 6715,
      "cler": 6716,
      "finan": 6717,
      "fantasy": 6718,
      "tanner": 6719,
      "keen": 6720,
      "sometime": 6721,
      "frantically": 6722,
      "gentlemen": 6723,
      "toler": 6724,
      "hoo": 6725,
      "staggered": 6726,
      "poked": 6727,
      "idents": 6728,
      "leaped": 6729,
      "anytime": 6730,
      "frantic": 6731,
      "doz": 6732,
      "blankets": 6733,
      "folk": 6734,
      "confront": 6735,
      "choices": 6736,
      "breaks": 6737,
      "exciting": 6738,
      "goodness": 6739,
      "mister": 6740,
      "flinched": 6741,
      "wizard": 6742,
      "elegant": 6743,
      "package": 6744,
      "marched": 6745,
      "peaceful": 6746,
      "bothering": 6747,
      "homes": 6748,
      "suv": 6749,
      "portal": 6750,
      "eyelids": 6751,
      "pathetic": 6752,
      "ila": 6753,
      "painfully": 6754,
      "stalked": 6755,
      "striking": 6756,
      "atter": 6757,
      "secretary": 6758,
      "lashes": 6759,
      "swirling": 6760,
      "fridge": 6761,
      "guardian": 6762,
      "allie": 6763,
      "reek": 6764,
      "travis": 6765,
      "luckily": 6766,
      "avery": 6767,
      "paced": 6768,
      "destruction": 6769,
      "marshall": 6770,
      "spike": 6771,
      "ardon": 6772,
      "candles": 6773,
      "surroundings": 6774,
      "lana": 6775,
      "hound": 6776,
      "statue": 6777,
      "strangers": 6778,
      "atmo": 6779,
      "haul": 6780,
      "slightest": 6781,
      "benefit": 6782,
      "liber": 6783,
      "zack": 6784,
      "sipped": 6785,
      "gau": 6786,
      "ghosts": 6787,
      "smashed": 6788,
      "prints": 6789,
      "agers": 6790,
      "encounter": 6791,
      "stray": 6792,
      "toss": 6793,
      "xa": 6794,
      "vacation": 6795,
      "chie": 6796,
      "horrified": 6797,
      "despair": 6798,
      "fitting": 6799,
      "eves": 6800,
      "drum": 6801,
      "blocking": 6802,
      "attempting": 6803,
      "blushed": 6804,
      "steep": 6805,
      "sealed": 6806,
      "samp": 6807,
      "hopped": 6808,
      "congrat": 6809,
      "17": 6810,
      "mck": 6811,
      "achers": 6812,
      "momentarily": 6813,
      "pam": 6814,
      "throbbing": 6815,
      "tommy": 6816,
      "grocer": 6817,
      "aden": 6818,
      "valu": 6819,
      "granted": 6820,
      "dump": 6821,
      "instructed": 6822,
      "occasional": 6823,
      "som": 6824,
      "impul": 6825,
      "josie": 6826,
      "lieutenant": 6827,
      "media": 6828,
      "british": 6829,
      "mansion": 6830,
      "consumed": 6831,
      "greed": 6832,
      "isabella": 6833,
      "arts": 6834,
      "ami": 6835,
      "lunged": 6836,
      "neatly": 6837,
      "dumped": 6838,
      "licking": 6839,
      "dominic": 6840,
      "steadily": 6841,
      "jun": 6842,
      "spy": 6843,
      "ancy": 6844,
      "collect": 6845,
      "mort": 6846,
      "visiting": 6847,
      "kor": 6848,
      "polished": 6849,
      "title": 6850,
      "bund": 6851,
      "mant": 6852,
      "beaten": 6853,
      "eden": 6854,
      "fae": 6855,
      "realised": 6856,
      "clit": 6857,
      "fiona": 6858,
      "warren": 6859,
      "iter": 6860,
      "maneu": 6861,
      "elli": 6862,
      "sticks": 6863,
      "hou": 6864,
      "healed": 6865,
      "tess": 6866,
      "odds": 6867,
      "hesitate": 6868,
      "lized": 6869,
      "bliss": 6870,
      "precisely": 6871,
      "depths": 6872,
      "mara": 6873,
      "committed": 6874,
      "iley": 6875,
      "nause": 6876,
      "natalie": 6877,
      "sni": 6878,
      "miller": 6879,
      "wasted": 6880,
      "amongst": 6881,
      "distraction": 6882,
      "disgu": 6883,
      "adventure": 6884,
      "overwhelmed": 6885,
      "wry": 6886,
      "kira": 6887,
      "churn": 6888,
      "braced": 6889,
      "dozens": 6890,
      "softened": 6891,
      "status": 6892,
      "det": 6893,
      "plot": 6894,
      "aggres": 6895,
      "anya": 6896,
      "therap": 6897,
      "attracted": 6898,
      "obe": 6899,
      "shifter": 6900,
      "whore": 6901,
      "blurted": 6902,
      "ave": 6903,
      "samu": 6904,
      "internet": 6905,
      "politely": 6906,
      "wishes": 6907,
      "tile": 6908,
      "pitched": 6909,
      "temperature": 6910,
      "stabbed": 6911,
      "rebecca": 6912,
      "rights": 6913,
      "ramp": 6914,
      "expand": 6915,
      "helicopter": 6916,
      "burns": 6917,
      "pest": 6918,
      "fox": 6919,
      "trey": 6920,
      "flan": 6921,
      "ensure": 6922,
      "ishly": 6923,
      "dresser": 6924,
      "mouse": 6925,
      "fishing": 6926,
      "collected": 6927,
      "distinct": 6928,
      "ige": 6929,
      "sorrow": 6930,
      "headache": 6931,
      "repair": 6932,
      "strands": 6933,
      "washington": 6934,
      "ralph": 6935,
      "pushes": 6936,
      "gap": 6937,
      "ients": 6938,
      "vigor": 6939,
      "hyster": 6940,
      "gifts": 6941,
      "electricity": 6942,
      "hauled": 6943,
      "combination": 6944,
      "fiance": 6945,
      "coughed": 6946,
      "argued": 6947,
      "areas": 6948,
      "domen": 6949,
      "mouths": 6950,
      "sympathy": 6951,
      "smug": 6952,
      "jasmine": 6953,
      "monk": 6954,
      "transport": 6955,
      "oke": 6956,
      "edged": 6957,
      "jungle": 6958,
      "wary": 6959,
      "alan": 6960,
      "devast": 6961,
      "lance": 6962,
      "hovering": 6963,
      "sanct": 6964,
      "wallet": 6965,
      "stealing": 6966,
      "coinc": 6967,
      "isol": 6968,
      "automatically": 6969,
      "powder": 6970,
      "pacing": 6971,
      "saddle": 6972,
      "reminding": 6973,
      "nesses": 6974,
      "unique": 6975,
      "recovered": 6976,
      "pra": 6977,
      "curling": 6978,
      "izzy": 6979,
      "zone": 6980,
      "misty": 6981,
      "crimson": 6982,
      "uneasy": 6983,
      "accompan": 6984,
      "scoff": 6985,
      "smash": 6986,
      "burden": 6987,
      "crawling": 6988,
      "pent": 6989,
      "jab": 6990,
      "firing": 6991,
      "texas": 6992,
      "guarded": 6993,
      "grins": 6994,
      "graham": 6995,
      "russian": 6996,
      "tos": 6997,
      "technology": 6998,
      "seized": 6999,
      "skirts": 7000,
      "explore": 7001,
      "dol": 7002,
      "ques": 7003,
      "baseball": 7004,
      "frances": 7005,
      "earned": 7006,
      "portion": 7007,
      "appointment": 7008,
      "bearing": 7009,
      "basic": 7010,
      "disappearing": 7011,
      "fluttered": 7012,
      "patri": 7013,
      "standard": 7014,
      "significant": 7015,
      "comed": 7016,
      "glist": 7017,
      "ashley": 7018,
      "oft": 7019,
      "desperation": 7020,
      "poo": 7021,
      "wreck": 7022,
      "treasure": 7023,
      "uttering": 7024,
      "clapped": 7025,
      "sweeping": 7026,
      "seal": 7027,
      "sighs": 7028,
      "political": 7029,
      "zzed": 7030,
      "painter": 7031,
      "locking": 7032,
      "wheels": 7033,
      "av": 7034,
      "absence": 7035,
      "aven": 7036,
      "jection": 7037,
      "telephone": 7038,
      "consequences": 7039,
      "ulty": 7040,
      "shred": 7041,
      "saint": 7042,
      "mused": 7043,
      "urged": 7044,
      "pla": 7045,
      "nightmares": 7046,
      "thrilled": 7047,
      "cottage": 7048,
      "wag": 7049,
      "preston": 7050,
      "survival": 7051,
      "fulf": 7052,
      "channel": 7053,
      "quin": 7054,
      "16": 7055,
      "pout": 7056,
      "shay": 7057,
      "identity": 7058,
      "greeting": 7059,
      "hugh": 7060,
      "ritual": 7061,
      "noises": 7062,
      "leah": 7063,
      "stic": 7064,
      "coward": 7065,
      "brady": 7066,
      "surrender": 7067,
      "guessing": 7068,
      "wandering": 7069,
      "august": 7070,
      "nette": 7071,
      "inkling": 7072,
      "torso": 7073,
      "tempted": 7074,
      "hears": 7075,
      "megan": 7076,
      "framed": 7077,
      "isabelle": 7078,
      "piercing": 7079,
      "gained": 7080,
      "judgment": 7081,
      "intrigu": 7082,
      "dresses": 7083,
      "equal": 7084,
      "elabor": 7085,
      "mbl": 7086,
      "reassuring": 7087,
      "naomi": 7088,
      "curiously": 7089,
      "neighbors": 7090,
      "boston": 7091,
      "wrest": 7092,
      "leaf": 7093,
      "fet": 7094,
      "influence": 7095,
      "imagin": 7096,
      "penny": 7097,
      "hatch": 7098,
      "iden": 7099,
      "drifting": 7100,
      "sprang": 7101,
      "developed": 7102,
      "acknowledge": 7103,
      "conver": 7104,
      "wealth": 7105,
      "violently": 7106,
      "piss": 7107,
      "troops": 7108,
      "announce": 7109,
      "robin": 7110,
      "atmosphere": 7111,
      "trailer": 7112,
      "regarded": 7113,
      "era": 7114,
      "lers": 7115,
      "bou": 7116,
      "apology": 7117,
      "shuff": 7118,
      "parker": 7119,
      "adin": 7120,
      "jase": 7121,
      "lingered": 7122,
      "longing": 7123,
      "goose": 7124,
      "distract": 7125,
      "dece": 7126,
      "gile": 7127,
      "rumors": 7128,
      "fbi": 7129,
      "francis": 7130,
      "orient": 7131,
      "becomes": 7132,
      "peeked": 7133,
      "touches": 7134,
      "torch": 7135,
      "champagne": 7136,
      "humanity": 7137,
      "german": 7138,
      "cities": 7139,
      "elliot": 7140,
      "balan": 7141,
      "muscular": 7142,
      "chip": 7143,
      "sket": 7144,
      "helps": 7145,
      "ox": 7146,
      "tapping": 7147,
      "arthur": 7148,
      "slim": 7149,
      "earl": 7150,
      "receive": 7151,
      "whistle": 7152,
      "instincts": 7153,
      "treating": 7154,
      "sped": 7155,
      "bucket": 7156,
      "joey": 7157,
      "spoon": 7158,
      "skinny": 7159,
      "casting": 7160,
      "kitten": 7161,
      "theo": 7162,
      "speaks": 7163,
      "completed": 7164,
      "erupted": 7165,
      "rusty": 7166,
      "otic": 7167,
      "winning": 7168,
      "nudged": 7169,
      "shaw": 7170,
      "thumbs": 7171,
      "wider": 7172,
      "vile": 7173,
      "sliced": 7174,
      "disease": 7175,
      "bug": 7176,
      "tucker": 7177,
      "barrier": 7178,
      "gia": 7179,
      "terribly": 7180,
      "fragile": 7181,
      "zombie": 7182,
      "fifth": 7183,
      "songs": 7184,
      "vom": 7185,
      "ripping": 7186,
      "tumbled": 7187,
      "marco": 7188,
      "whip": 7189,
      "hovered": 7190,
      "unks": 7191,
      "hugging": 7192,
      "resour": 7193,
      "tax": 7194,
      "carson": 7195,
      "nonsense": 7196,
      "blouse": 7197,
      "forearm": 7198,
      "laurence": 7199,
      "lac": 7200,
      "gravel": 7201,
      "beings": 7202,
      "invite": 7203,
      "shrugs": 7204,
      "panel": 7205,
      "dizzy": 7206,
      "revel": 7207,
      "forgiven": 7208,
      "teddy": 7209,
      "destination": 7210,
      "ddle": 7211,
      "itive": 7212,
      "congratul": 7213,
      "antoni": 7214,
      "steven": 7215,
      "backing": 7216,
      "mount": 7217,
      "ribb": 7218,
      "knights": 7219,
      "stored": 7220,
      "curb": 7221,
      "disturbed": 7222,
      "suitcase": 7223,
      "advanced": 7224,
      "thanked": 7225,
      "angie": 7226,
      "bbed": 7227,
      "gleaming": 7228,
      "resent": 7229,
      "conversations": 7230,
      "sali": 7231,
      "hardened": 7232,
      "worries": 7233,
      "whos": 7234,
      "magnific": 7235,
      "rational": 7236,
      "notebook": 7237,
      "adop": 7238,
      "downtown": 7239,
      "lifts": 7240,
      "pillows": 7241,
      "inclined": 7242,
      "bending": 7243,
      "theyll": 7244,
      "chewed": 7245,
      "declan": 7246,
      "navy": 7247,
      "semi": 7248,
      "xture": 7249,
      "jealousy": 7250,
      "savage": 7251,
      "lene": 7252,
      "empire": 7253,
      "knives": 7254,
      "roses": 7255,
      "exhi": 7256,
      "possession": 7257,
      "gious": 7258,
      "freezing": 7259,
      "pry": 7260,
      "slice": 7261,
      "treatment": 7262,
      "withdrew": 7263,
      "june": 7264,
      "sandy": 7265,
      "casey": 7266,
      "itated": 7267,
      "testing": 7268,
      "troll": 7269,
      "admin": 7270,
      "bills": 7271,
      "launched": 7272,
      "anthony": 7273,
      "permanent": 7274,
      "philli": 7275,
      "glory": 7276,
      "circling": 7277,
      "cats": 7278,
      "thoughtful": 7279,
      "messed": 7280,
      "frightening": 7281,
      "capture": 7282,
      "crisp": 7283,
      "recover": 7284,
      "dding": 7285,
      "ticket": 7286,
      "alys": 7287,
      "pole": 7288,
      "ifully": 7289,
      "deserted": 7290,
      "griffin": 7291,
      "ambul": 7292,
      "joshu": 7293,
      "foun": 7294,
      "layer": 7295,
      "finishing": 7296,
      "atives": 7297,
      "condo": 7298,
      "imagining": 7299,
      "destiny": 7300,
      "chad": 7301,
      "rubber": 7302,
      "vegas": 7303,
      "duck": 7304,
      "valentine": 7305,
      "generally": 7306,
      "rak": 7307,
      "perfor": 7308,
      "dwell": 7309,
      "cells": 7310,
      "drama": 7311,
      "concentrated": 7312,
      "osing": 7313,
      "yaw": 7314,
      "retreat": 7315,
      "pota": 7316,
      "goti": 7317,
      "rung": 7318,
      "license": 7319,
      "county": 7320,
      "fulfill": 7321,
      "coin": 7322,
      "symbol": 7323,
      "bould": 7324,
      "weary": 7325,
      "hael": 7326,
      "workers": 7327,
      "smoothed": 7328,
      "madness": 7329,
      "grunt": 7330,
      "iced": 7331,
      "rating": 7332,
      "legend": 7333,
      "corrected": 7334,
      "solemn": 7335,
      "ruby": 7336,
      "emper": 7337,
      "purchase": 7338,
      "rigid": 7339,
      "explode": 7340,
      "newly": 7341,
      "schol": 7342,
      "topic": 7343,
      "pavement": 7344,
      "criminal": 7345,
      "pinched": 7346,
      "perry": 7347,
      "gic": 7348,
      "warehouse": 7349,
      "soup": 7350,
      "lazy": 7351,
      "judging": 7352,
      "refusing": 7353,
      "assho": 7354,
      "reminder": 7355,
      "email": 7356,
      "pleading": 7357,
      "terrifying": 7358,
      "bouncing": 7359,
      "teria": 7360,
      "madame": 7361,
      "accompanied": 7362,
      "medicine": 7363,
      "scanning": 7364,
      "publ": 7365,
      "deaf": 7366,
      "tests": 7367,
      "superior": 7368,
      "smoothly": 7369,
      "dimit": 7370,
      "fantastic": 7371,
      "smacked": 7372,
      "organiz": 7373,
      "explaining": 7374,
      "cran": 7375,
      "failure": 7376,
      "clients": 7377,
      "affect": 7378,
      "italian": 7379,
      "boats": 7380,
      "volume": 7381,
      "heck": 7382,
      "sch": 7383,
      "trous": 7384,
      "afri": 7385,
      "misery": 7386,
      "effects": 7387,
      "veron": 7388,
      "zombies": 7389,
      "insur": 7390,
      "regarding": 7391,
      "creepy": 7392,
      "twir": 7393,
      "troubled": 7394,
      "boom": 7395,
      "sleeves": 7396,
      "elijah": 7397,
      "nas": 7398,
      "daughters": 7399,
      "vicious": 7400,
      "packing": 7401,
      "swirled": 7402,
      "decades": 7403,
      "socks": 7404,
      "selling": 7405,
      "archer": 7406,
      "landscape": 7407,
      "impatient": 7408,
      "negoti": 7409,
      "celer": 7410,
      "valuable": 7411,
      "posure": 7412,
      "facility": 7413,
      "strict": 7414,
      "foul": 7415,
      "tiff": 7416,
      "toms": 7417,
      "clamped": 7418,
      "mers": 7419,
      "dwarf": 7420,
      "minded": 7421,
      "becky": 7422,
      "chess": 7423,
      "gossip": 7424,
      "essenti": 7425,
      "illa": 7426,
      "cans": 7427,
      "gradually": 7428,
      "scur": 7429,
      "uced": 7430,
      "phil": 7431,
      "insides": 7432,
      "services": 7433,
      "crooked": 7434,
      "chine": 7435,
      "suggestion": 7436,
      "convic": 7437,
      "hest": 7438,
      "attor": 7439,
      "average": 7440,
      "dus": 7441,
      "ponytail": 7442,
      "vey": 7443,
      "maddie": 7444,
      "tingu": 7445,
      "plunged": 7446,
      "lian": 7447,
      "jap": 7448,
      "arous": 7449,
      "witnessed": 7450,
      "bucks": 7451,
      "damaged": 7452,
      "toy": 7453,
      "dates": 7454,
      "clust": 7455,
      "cuffs": 7456,
      "arrest": 7457,
      "aer": 7458,
      "samuel": 7459,
      "oon": 7460,
      "replies": 7461,
      "tortured": 7462,
      "sober": 7463,
      "fountain": 7464,
      "eyeing": 7465,
      "sau": 7466,
      "injuries": 7467,
      "kellan": 7468,
      "tease": 7469,
      "bass": 7470,
      "sighing": 7471,
      "stunning": 7472,
      "tues": 7473,
      "spilling": 7474,
      "rences": 7475,
      "trailing": 7476,
      "aura": 7477,
      "fuel": 7478,
      "illusion": 7479,
      "dded": 7480,
      "pump": 7481,
      "cers": 7482,
      "thoroughly": 7483,
      "dimitri": 7484,
      "museum": 7485,
      "arrested": 7486,
      "pleaded": 7487,
      "shotgun": 7488,
      "mam": 7489,
      "itute": 7490,
      "perched": 7491,
      "gulf": 7492,
      "handled": 7493,
      "assion": 7494,
      "mold": 7495,
      "neut": 7496,
      "mistakes": 7497,
      "chinese": 7498,
      "envir": 7499,
      "concent": 7500,
      "temporary": 7501,
      "sunglasses": 7502,
      "performan": 7503,
      "linger": 7504,
      "piled": 7505,
      "pant": 7506,
      "customers": 7507,
      "clinging": 7508,
      "introduce": 7509,
      "melody": 7510,
      "rabbit": 7511,
      "flicker": 7512,
      "vehicles": 7513,
      "fis": 7514,
      "perfe": 7515,
      "ares": 7516,
      "exited": 7517,
      "onment": 7518,
      "ield": 7519,
      "rattled": 7520,
      "weigh": 7521,
      "roth": 7522,
      "shades": 7523,
      "prime": 7524,
      "electron": 7525,
      "personality": 7526,
      "heap": 7527,
      "discussed": 7528,
      "vation": 7529,
      "tak": 7530,
      "scale": 7531,
      "praying": 7532,
      "bak": 7533,
      "disaster": 7534,
      "sasha": 7535,
      "sici": 7536,
      "joshua": 7537,
      "storage": 7538,
      "dealt": 7539,
      "dent": 7540,
      "tempt": 7541,
      "laced": 7542,
      "enelle": 7543,
      "hector": 7544,
      "shivering": 7545,
      "smu": 7546,
      "claw": 7547,
      "warming": 7548,
      "scowl": 7549,
      "angu": 7550,
      "constru": 7551,
      "tested": 7552,
      "beep": 7553,
      "waiter": 7554,
      "assignment": 7555,
      "bee": 7556,
      "nell": 7557,
      "werewolves": 7558,
      "murdere": 7559,
      "novel": 7560,
      "kinda": 7561,
      "tilt": 7562,
      "deer": 7563,
      "init": 7564,
      "nineteen": 7565,
      "whiskey": 7566,
      "element": 7567,
      "rhys": 7568,
      "cakes": 7569,
      "mical": 7570,
      "creek": 7571,
      "foyer": 7572,
      "teaching": 7573,
      "haze": 7574,
      "aris": 7575,
      "beasts": 7576,
      "pru": 7577,
      "forb": 7578,
      "intelligent": 7579,
      "register": 7580,
      "suicide": 7581,
      "perform": 7582,
      "positioned": 7583,
      "blunt": 7584,
      "deciding": 7585,
      "independ": 7586,
      "marg": 7587,
      "kneeling": 7588,
      "cs": 7589,
      "beloved": 7590,
      "jaenelle": 7591,
      "zzling": 7592,
      "sworn": 7593,
      "hastily": 7594,
      "collap": 7595,
      "alli": 7596,
      "oma": 7597,
      "jerry": 7598,
      "loyalty": 7599,
      "profile": 7600,
      "maker": 7601,
      "choking": 7602,
      "dimen": 7603,
      "appreciated": 7604,
      "lings": 7605,
      "femin": 7606,
      "numer": 7607,
      "charges": 7608,
      "sparks": 7609,
      "article": 7610,
      "disturbing": 7611,
      "officially": 7612,
      "levels": 7613,
      "chel": 7614,
      "assigned": 7615,
      "pecu": 7616,
      "heaved": 7617,
      "annoyance": 7618,
      "theater": 7619,
      "tools": 7620,
      "vamp": 7621,
      "mitted": 7622,
      "puzzle": 7623,
      "decorated": 7624,
      "winding": 7625,
      "echoing": 7626,
      "oppon": 7627,
      "squat": 7628,
      "beds": 7629,
      "drain": 7630,
      "costu": 7631,
      "deaths": 7632,
      "inher": 7633,
      "prisoners": 7634,
      "brains": 7635,
      "junior": 7636,
      "awkwardly": 7637,
      "beau": 7638,
      "emphas": 7639,
      "annon": 7640,
      "whoa": 7641,
      "awareness": 7642,
      "blows": 7643,
      "picks": 7644,
      "solo": 7645,
      "unpleasant": 7646,
      "garath": 7647,
      "cind": 7648,
      "blazing": 7649,
      "morti": 7650,
      "tible": 7651,
      "und": 7652,
      "formation": 7653,
      "brutal": 7654,
      "slides": 7655,
      "remarked": 7656,
      "education": 7657,
      "kara": 7658,
      "coal": 7659,
      "bruises": 7660,
      "encourage": 7661,
      "divorce": 7662,
      "studio": 7663,
      "temples": 7664,
      "impatiently": 7665,
      "quer": 7666,
      "stove": 7667,
      "nico": 7668,
      "thump": 7669,
      "generous": 7670,
      "melanie": 7671,
      "garbage": 7672,
      "fain": 7673,
      "shuffled": 7674,
      "apprehen": 7675,
      "taxi": 7676,
      "infin": 7677,
      "rice": 7678,
      "passes": 7679,
      "wyn": 7680,
      "dangling": 7681,
      "belgarath": 7682,
      "50": 7683,
      "spur": 7684,
      "ula": 7685,
      "harper": 7686,
      "effic": 7687,
      "knit": 7688,
      "prospect": 7689,
      "exhaustion": 7690,
      "compliment": 7691,
      "elo": 7692,
      "friger": 7693,
      "lasted": 7694,
      "rex": 7695,
      "thoughtfully": 7696,
      "initial": 7697,
      "mead": 7698,
      "refriger": 7699,
      "cence": 7700,
      "imate": 7701,
      "plas": 7702,
      "bartender": 7703,
      "presses": 7704,
      "arrogant": 7705,
      "gag": 7706,
      "arrows": 7707,
      "anni": 7708,
      "intentions": 7709,
      "peculiar": 7710,
      "strain": 7711,
      "safer": 7712,
      "crumpled": 7713,
      "promises": 7714,
      "michelle": 7715,
      "stilled": 7716,
      "aire": 7717,
      "suffic": 7718,
      "phan": 7719,
      "differently": 7720,
      "tunnels": 7721,
      "bourne": 7722,
      "unts": 7723,
      "construction": 7724,
      "provid": 7725,
      "lucivar": 7726,
      "phr": 7727,
      "obey": 7728,
      "skyla": 7729,
      "soil": 7730,
      "offended": 7731,
      "mend": 7732,
      "philo": 7733,
      "reporter": 7734,
      "coff": 7735,
      "specul": 7736,
      "humming": 7737,
      "dess": 7738,
      "charity": 7739,
      "recru": 7740,
      "connect": 7741,
      "patiently": 7742,
      "sday": 7743,
      "lowering": 7744,
      "curves": 7745,
      "strings": 7746,
      "conclusion": 7747,
      "emperor": 7748,
      "razor": 7749,
      "concentration": 7750,
      "mole": 7751,
      "wrath": 7752,
      "micah": 7753,
      "pills": 7754,
      "lessons": 7755,
      "vlad": 7756,
      "partners": 7757,
      "sparkling": 7758,
      "cares": 7759,
      "lizzie": 7760,
      "wayne": 7761,
      "aneously": 7762,
      "accused": 7763,
      "enthusiasm": 7764,
      "stung": 7765,
      "thud": 7766,
      "inward": 7767,
      "pauses": 7768,
      "stella": 7769,
      "thrill": 7770,
      "sweaty": 7771,
      "eness": 7772,
      "ural": 7773,
      "loop": 7774,
      "mouthed": 7775,
      "bites": 7776,
      "description": 7777,
      "crushing": 7778,
      "tracking": 7779,
      "commo": 7780,
      "pearl": 7781,
      "allison": 7782,
      "folds": 7783,
      "slope": 7784,
      "aler": 7785,
      "cassidy": 7786,
      "levi": 7787,
      "releasing": 7788,
      "strap": 7789,
      "fiery": 7790,
      "wilder": 7791,
      "online": 7792,
      "strolled": 7793,
      "visitors": 7794,
      "gery": 7795,
      "phoen": 7796,
      "scal": 7797,
      "xavier": 7798,
      "indul": 7799,
      "pus": 7800,
      "twitch": 7801,
      "acceler": 7802,
      "jin": 7803,
      "dramatic": 7804,
      "population": 7805,
      "faintly": 7806,
      "luther": 7807,
      "perfu": 7808,
      "thankful": 7809,
      "discussing": 7810,
      "fashioned": 7811,
      "watches": 7812,
      "itches": 7813,
      "focusing": 7814,
      "jewelry": 7815,
      "injury": 7816,
      "shrieked": 7817,
      "iser": 7818,
      "calvin": 7819,
      "wisdom": 7820,
      "yel": 7821,
      "awhile": 7822,
      "oxy": 7823,
      "wool": 7824,
      "cherry": 7825,
      "centre": 7826,
      "thorn": 7827,
      "tones": 7828,
      "jules": 7829,
      "logic": 7830,
      "geon": 7831,
      "lantern": 7832,
      "compassion": 7833,
      "bubb": 7834,
      "lav": 7835,
      "inviting": 7836,
      "roots": 7837,
      "ambulance": 7838,
      "engers": 7839,
      "omin": 7840,
      "wax": 7841,
      "inevitable": 7842,
      "messy": 7843,
      "reacted": 7844,
      "freeze": 7845,
      "fiercely": 7846,
      "multiple": 7847,
      "chips": 7848,
      "izens": 7849,
      "tightening": 7850,
      "artist": 7851,
      "advert": 7852,
      "cookies": 7853,
      "timately": 7854,
      "resistance": 7855,
      "chand": 7856,
      "bolted": 7857,
      "sucks": 7858,
      "savor": 7859,
      "shorter": 7860,
      "chal": 7861,
      "menu": 7862,
      "slung": 7863,
      "escor": 7864,
      "retreated": 7865,
      "supper": 7866,
      "convincing": 7867,
      "cassandra": 7868,
      "oker": 7869,
      "presented": 7870,
      "irritation": 7871,
      "dashed": 7872,
      "cancer": 7873,
      "huddled": 7874,
      "hunched": 7875,
      "altogether": 7876,
      "strapped": 7877,
      "ulti": 7878,
      "overcome": 7879,
      "cracking": 7880,
      "scu": 7881,
      "exercise": 7882,
      "dazed": 7883,
      "quisite": 7884,
      "oring": 7885,
      "malcol": 7886,
      "skipped": 7887,
      "streaming": 7888,
      "zeke": 7889,
      "paperwork": 7890,
      "embarrassing": 7891,
      "sobbing": 7892,
      "scul": 7893,
      "phoenix": 7894,
      "shea": 7895,
      "attempts": 7896,
      "jade": 7897,
      "kan": 7898,
      "complained": 7899,
      "pierced": 7900,
      "aboard": 7901,
      "communication": 7902,
      "seventy": 7903,
      "skye": 7904,
      "rober": 7905,
      "northern": 7906,
      "fiction": 7907,
      "ole": 7908,
      "claiming": 7909,
      "liness": 7910,
      "madison": 7911,
      "lame": 7912,
      "rial": 7913,
      "surged": 7914,
      "barbar": 7915,
      "mono": 7916,
      "commented": 7917,
      "analy": 7918,
      "sympa": 7919,
      "delighted": 7920,
      "discre": 7921,
      "vivid": 7922,
      "registered": 7923,
      "expan": 7924,
      "dismissed": 7925,
      "limits": 7926,
      "fantas": 7927,
      "dryly": 7928,
      "fest": 7929,
      "altar": 7930,
      "prompt": 7931,
      "restless": 7932,
      "eagerly": 7933,
      "confli": 7934,
      "ored": 7935,
      "urgent": 7936,
      "furrowed": 7937,
      "concept": 7938,
      "rapid": 7939,
      "bargain": 7940,
      "rogue": 7941,
      "ups": 7942,
      "quet": 7943,
      "amid": 7944,
      "technically": 7945,
      "oblivious": 7946,
      "disco": 7947,
      "shaken": 7948,
      "slaves": 7949,
      "sweating": 7950,
      "speaker": 7951,
      "experiment": 7952,
      "antonio": 7953,
      "removing": 7954,
      "forgetting": 7955,
      "flickering": 7956,
      "rug": 7957,
      "bruised": 7958,
      "apollo": 7959,
      "cession": 7960,
      "malcolm": 7961,
      "jagged": 7962,
      "disgusted": 7963,
      "gravity": 7964,
      "gies": 7965,
      "ceded": 7966,
      "china": 7967,
      "kyrian": 7968,
      "spanish": 7969,
      "unaware": 7970,
      "rim": 7971,
      "urance": 7972,
      "willingly": 7973,
      "partially": 7974,
      "attraction": 7975,
      "parano": 7976,
      "senator": 7977,
      "ria": 7978,
      "macy": 7979,
      "patrol": 7980,
      "navi": 7981,
      "coincidence": 7982,
      "kas": 7983,
      "cursing": 7984,
      "expl": 7985,
      "angles": 7986,
      "exagger": 7987,
      "surreal": 7988,
      "mixture": 7989,
      "bray": 7990,
      "awoke": 7991,
      "darius": 7992,
      "lissa": 7993,
      "performance": 7994,
      "deput": 7995,
      "rory": 7996,
      "elean": 7997,
      "trousers": 7998,
      "absently": 7999,
      "rag": 8000,
      "cargo": 8001,
      "unbelie": 8002,
      "backseat": 8003,
      "clad": 8004,
      "canvas": 8005,
      "resolve": 8006,
      "mocking": 8007,
      "scot": 8008,
      "notion": 8009,
      "catherine": 8010,
      "flipping": 8011,
      "mira": 8012,
      "ighed": 8013,
      "bishop": 8014,
      "amaze": 8015,
      "sier": 8016,
      "manu": 8017,
      "machines": 8018,
      "blackness": 8019,
      "bil": 8020,
      "sanctuary": 8021,
      "fee": 8022,
      "tem": 8023,
      "regain": 8024,
      "minim": 8025,
      "myth": 8026,
      "quie": 8027,
      "christop": 8028,
      "nadia": 8029,
      "sunset": 8030,
      "snort": 8031,
      "brooke": 8032,
      "ires": 8033,
      "berg": 8034,
      "internal": 8035,
      "xim": 8036,
      "oy": 8037,
      "lilly": 8038,
      "catches": 8039,
      "financial": 8040,
      "indian": 8041,
      "chall": 8042,
      "carlos": 8043,
      "wander": 8044,
      "tad": 8045,
      "meanwhile": 8046,
      "sly": 8047,
      "rats": 8048,
      "closes": 8049,
      "esy": 8050,
      "sensing": 8051,
      "backyard": 8052,
      "leigh": 8053,
      "lounge": 8054,
      "dign": 8055,
      "emerald": 8056,
      "helpful": 8057,
      "gruff": 8058,
      "genuinely": 8059,
      "combined": 8060,
      "lina": 8061,
      "advance": 8062,
      "progra": 8063,
      "capital": 8064,
      "zipped": 8065,
      "tia": 8066,
      "dorian": 8067,
      "acid": 8068,
      "governor": 8069,
      "lining": 8070,
      "felix": 8071,
      "reluctant": 8072,
      "attacks": 8073,
      "meters": 8074,
      "pictured": 8075,
      "winds": 8076,
      "webs": 8077,
      "bonnie": 8078,
      "swallowing": 8079,
      "swayed": 8080,
      "drivers": 8081,
      "doubts": 8082,
      "brisk": 8083,
      "france": 8084,
      "tary": 8085,
      "elaborate": 8086,
      "downward": 8087,
      "starving": 8088,
      "score": 8089,
      "companions": 8090,
      "drunken": 8091,
      "sleepy": 8092,
      "positions": 8093,
      "senti": 8094,
      "commer": 8095,
      "bethany": 8096,
      "cons": 8097,
      "review": 8098,
      "controll": 8099,
      "posal": 8100,
      "hiss": 8101,
      "kur": 8102,
      "wee": 8103,
      "feast": 8104,
      "ceme": 8105,
      "gloss": 8106,
      "spells": 8107,
      "pris": 8108,
      "napkin": 8109,
      "henri": 8110,
      "tool": 8111,
      "admire": 8112,
      "bumps": 8113,
      "serena": 8114,
      "cemetery": 8115,
      "greek": 8116,
      "mistaken": 8117,
      "illegal": 8118,
      "laundry": 8119,
      "heir": 8120,
      "lemon": 8121,
      "dalton": 8122,
      "autum": 8123,
      "merry": 8124,
      "magnificent": 8125,
      "tires": 8126,
      "pond": 8127,
      "flashes": 8128,
      "comments": 8129,
      "pausing": 8130,
      "practical": 8131,
      "caressed": 8132,
      "citizens": 8133,
      "whimper": 8134,
      "oldest": 8135,
      "secured": 8136,
      "tremble": 8137,
      "goo": 8138,
      "disci": 8139,
      "pencil": 8140,
      "kaladin": 8141,
      "bumped": 8142,
      "dial": 8143,
      "eleanor": 8144,
      "tina": 8145,
      "ropes": 8146,
      "ani": 8147,
      "reserved": 8148,
      "yers": 8149,
      "mommy": 8150,
      "accepting": 8151,
      "dain": 8152,
      "sprawled": 8153,
      "essa": 8154,
      "axe": 8155,
      "prize": 8156,
      "filthy": 8157,
      "arte": 8158,
      "glen": 8159,
      "tended": 8160,
      "cano": 8161,
      "flex": 8162,
      "recomm": 8163,
      "goin": 8164,
      "vivian": 8165,
      "athle": 8166,
      "fighter": 8167,
      "arriving": 8168,
      "morris": 8169,
      "refrigerator": 8170,
      "ego": 8171,
      "longed": 8172,
      "unlikely": 8173,
      "blasted": 8174,
      "gren": 8175,
      "clerk": 8176,
      "pregnancy": 8177,
      "acheron": 8178,
      "sacred": 8179,
      "lovers": 8180,
      "stance": 8181,
      "inse": 8182,
      "ators": 8183,
      "hazel": 8184,
      "stew": 8185,
      "claude": 8186,
      "drey": 8187,
      "luis": 8188,
      "teenager": 8189,
      "bizar": 8190,
      "attacking": 8191,
      "acity": 8192,
      "liking": 8193,
      "immen": 8194,
      "cope": 8195,
      "willow": 8196,
      "shutting": 8197,
      "weighed": 8198,
      "distress": 8199,
      "eag": 8200,
      "insurance": 8201,
      "addled": 8202,
      "types": 8203,
      "relig": 8204,
      "sunny": 8205,
      "transl": 8206,
      "colon": 8207,
      "gay": 8208,
      "22": 8209,
      "jonah": 8210,
      "denied": 8211,
      "reci": 8212,
      "blessed": 8213,
      "unhappy": 8214,
      "romance": 8215,
      "meetings": 8216,
      "tales": 8217,
      "joel": 8218,
      "cowboy": 8219,
      "april": 8220,
      "sensual": 8221,
      "sci": 8222,
      "retrieve": 8223,
      "stil": 8224,
      "scooped": 8225,
      "tuesday": 8226,
      "larry": 8227,
      "sobs": 8228,
      "sacrific": 8229,
      "females": 8230,
      "cracks": 8231,
      "variety": 8232,
      "hopeful": 8233,
      "repeatedly": 8234,
      "loading": 8235,
      "stride": 8236,
      "talks": 8237,
      "returns": 8238,
      "mmm": 8239,
      "guts": 8240,
      "slay": 8241,
      "buzzing": 8242,
      "root": 8243,
      "asher": 8244,
      "additional": 8245,
      "claims": 8246,
      "dson": 8247,
      "deed": 8248,
      "wednes": 8249,
      "smelling": 8250,
      "rounds": 8251,
      "callie": 8252,
      "static": 8253,
      "acts": 8254,
      "inity": 8255,
      "flatten": 8256,
      "demands": 8257,
      "obsc": 8258,
      "cue": 8259,
      "objects": 8260,
      "script": 8261,
      "stumbling": 8262,
      "exclu": 8263,
      "lem": 8264,
      "infected": 8265,
      "feathers": 8266,
      "disgusting": 8267,
      "examine": 8268,
      "mbre": 8269,
      "asshole": 8270,
      "betrayal": 8271,
      "scoffed": 8272,
      "jolt": 8273,
      "buzzed": 8274,
      "abandon": 8275,
      "millions": 8276,
      "banks": 8277,
      "oxygen": 8278,
      "lords": 8279,
      "chewing": 8280,
      "undead": 8281,
      "linked": 8282,
      "junk": 8283,
      "motionless": 8284,
      "ovan": 8285,
      "agues": 8286,
      "iso": 8287,
      "hin": 8288,
      "eighty": 8289,
      "league": 8290,
      "depend": 8291,
      "proceeded": 8292,
      "shops": 8293,
      "ulate": 8294,
      "adults": 8295,
      "rols": 8296,
      "rion": 8297,
      "mature": 8298,
      "gross": 8299,
      "kest": 8300,
      "cringed": 8301,
      "identify": 8302,
      "pursed": 8303,
      "fav": 8304,
      "hearted": 8305,
      "delu": 8306,
      "heavens": 8307,
      "accidentally": 8308,
      "owners": 8309,
      "diana": 8310,
      "mound": 8311,
      "gled": 8312,
      "motel": 8313,
      "reminds": 8314,
      "bic": 8315,
      "summoned": 8316,
      "murphy": 8317,
      "odor": 8318,
      "lurched": 8319,
      "lecture": 8320,
      "duties": 8321,
      "survivor": 8322,
      "dot": 8323,
      "void": 8324,
      "accusto": 8325,
      "saun": 8326,
      "mick": 8327,
      "isha": 8328,
      "giggling": 8329,
      "sided": 8330,
      "accustomed": 8331,
      "silky": 8332,
      "systems": 8333,
      "blinding": 8334,
      "pardon": 8335,
      "sley": 8336,
      "madeline": 8337,
      "concerns": 8338,
      "upside": 8339,
      "suf": 8340,
      "tiffany": 8341,
      "idio": 8342,
      "brighter": 8343,
      "rank": 8344,
      "conner": 8345,
      "religious": 8346,
      "elsewhere": 8347,
      "etan": 8348,
      "rumbled": 8349,
      "supernatural": 8350,
      "apor": 8351,
      "challeng": 8352,
      "referring": 8353,
      "rio": 8354,
      "sticky": 8355,
      "delivery": 8356,
      "econ": 8357,
      "cautious": 8358,
      "encountered": 8359,
      "sawyer": 8360,
      "raphael": 8361,
      "gunner": 8362,
      "glittering": 8363,
      "defeated": 8364,
      "defensive": 8365,
      "freely": 8366,
      "comprom": 8367,
      "activities": 8368,
      "cyn": 8369,
      "unfamiliar": 8370,
      "autumn": 8371,
      "largest": 8372,
      "expressions": 8373,
      "motions": 8374,
      "sales": 8375,
      "dna": 8376,
      "fling": 8377,
      "evidently": 8378,
      "obed": 8379,
      "mascul": 8380,
      "audrey": 8381,
      "margaret": 8382,
      "factory": 8383,
      "xon": 8384,
      "furiously": 8385,
      "feminine": 8386,
      "talon": 8387,
      "alike": 8388,
      "fluid": 8389,
      "raises": 8390,
      "proudly": 8391,
      "rous": 8392,
      "stry": 8393,
      "piper": 8394,
      "basis": 8395,
      "contri": 8396,
      "oly": 8397,
      "calmed": 8398,
      "francesca": 8399,
      "lewis": 8400,
      "gaping": 8401,
      "reau": 8402,
      "countless": 8403,
      "virus": 8404,
      "shocking": 8405,
      "oph": 8406,
      "moni": 8407,
      "whitney": 8408,
      "exquisite": 8409,
      "choke": 8410,
      "absorbed": 8411,
      "andrea": 8412,
      "pumping": 8413,
      "thursday": 8414,
      "trusting": 8415,
      "dialed": 8416,
      "specif": 8417,
      "sust": 8418,
      "stomped": 8419,
      "fascinated": 8420,
      "attorney": 8421,
      "poses": 8422,
      "possibilities": 8423,
      "resisted": 8424,
      "express": 8425,
      "itll": 8426,
      "lodge": 8427,
      "stuart": 8428,
      "bum": 8429,
      "philip": 8430,
      "glorious": 8431,
      "scold": 8432,
      "ala": 8433,
      "dedic": 8434,
      "identical": 8435,
      "stormed": 8436,
      "battered": 8437,
      "viewed": 8438,
      "players": 8439,
      "nold": 8440,
      "creeping": 8441,
      "stench": 8442,
      "beamed": 8443,
      "absur": 8444,
      "papa": 8445,
      "bacon": 8446,
      "barre": 8447,
      "index": 8448,
      "24": 8449,
      "olive": 8450,
      "gee": 8451,
      "foster": 8452,
      "depends": 8453,
      "tomb": 8454,
      "traitor": 8455,
      "tribe": 8456,
      "puppy": 8457,
      "bedside": 8458,
      "drowning": 8459,
      "conspir": 8460,
      "teachers": 8461,
      "lucian": 8462,
      "shifters": 8463,
      "ei": 8464,
      "strokes": 8465,
      "produce": 8466,
      "phrase": 8467,
      "paintings": 8468,
      "apologe": 8469,
      "solit": 8470,
      "voy": 8471,
      "assistance": 8472,
      "clipped": 8473,
      "caress": 8474,
      "retrieved": 8475,
      "avenue": 8476,
      "grees": 8477,
      "scarf": 8478,
      "district": 8479,
      "shifts": 8480,
      "blos": 8481,
      "strongly": 8482,
      "kad": 8483,
      "startling": 8484,
      "scraped": 8485,
      "skep": 8486,
      "dense": 8487,
      "isabel": 8488,
      "compar": 8489,
      "trucks": 8490,
      "timing": 8491,
      "contrast": 8492,
      "absurd": 8493,
      "offers": 8494,
      "choosing": 8495,
      "happier": 8496,
      "stays": 8497,
      "aspe": 8498,
      "sienna": 8499,
      "cody": 8500,
      "saetan": 8501,
      "ea": 8502,
      "herent": 8503,
      "theyve": 8504,
      "immense": 8505,
      "peeled": 8506,
      "virt": 8507,
      "stirring": 8508,
      "thel": 8509,
      "joint": 8510,
      "donald": 8511,
      "meantime": 8512,
      "degrees": 8513,
      "seld": 8514,
      "sarcasm": 8515,
      "sue": 8516,
      "gulped": 8517,
      "salad": 8518,
      "adic": 8519,
      "nash": 8520,
      "eastern": 8521,
      "secretly": 8522,
      "hilt": 8523,
      "hairs": 8524,
      "eerie": 8525,
      "arousal": 8526,
      "drowned": 8527,
      "wield": 8528,
      "brass": 8529,
      "outrage": 8530,
      "aste": 8531,
      "roaring": 8532,
      "rumble": 8533,
      "outs": 8534,
      "tracked": 8535,
      "confessed": 8536,
      "ninety": 8537,
      "piano": 8538,
      "genius": 8539,
      "patients": 8540,
      "difficulty": 8541,
      "specifically": 8542,
      "gallery": 8543,
      "reacher": 8544,
      "coven": 8545,
      "highest": 8546,
      "races": 8547,
      "logist": 8548,
      "sunk": 8549,
      "simult": 8550,
      "minister": 8551,
      "ivan": 8552,
      "commission": 8553,
      "disturb": 8554,
      "suited": 8555,
      "pets": 8556,
      "diner": 8557,
      "hayden": 8558,
      "prompted": 8559,
      "organization": 8560,
      "wednesday": 8561,
      "necessarily": 8562,
      "gla": 8563,
      "bastards": 8564,
      "stacked": 8565,
      "fumbled": 8566,
      "resort": 8567,
      "enzie": 8568,
      "ulted": 8569,
      "beams": 8570,
      "offices": 8571,
      "lend": 8572,
      "vote": 8573,
      "husky": 8574,
      "possess": 8575,
      "nephe": 8576,
      "acknowledged": 8577,
      "lain": 8578,
      "scarce": 8579,
      "fingernails": 8580,
      "bells": 8581,
      "fans": 8582,
      "accompany": 8583,
      "frankly": 8584,
      "tavi": 8585,
      "halls": 8586,
      "torment": 8587,
      "wasting": 8588,
      "collapse": 8589,
      "follows": 8590,
      "peek": 8591,
      "gesturing": 8592,
      "relationships": 8593,
      "towns": 8594,
      "failing": 8595,
      "ament": 8596,
      "suspiciously": 8597,
      "chy": 8598,
      "eth": 8599,
      "stein": 8600,
      "blurred": 8601,
      "layla": 8602,
      "agency": 8603,
      "pey": 8604,
      "masters": 8605,
      "depth": 8606,
      "bizarre": 8607,
      "honesty": 8608,
      "competition": 8609,
      "maya": 8610,
      "hates": 8611,
      "cousins": 8612,
      "gaped": 8613,
      "resources": 8614,
      "item": 8615,
      "oath": 8616,
      "jag": 8617,
      "offense": 8618,
      "robes": 8619,
      "threats": 8620,
      "guarantee": 8621,
      "celebrate": 8622,
      "guer": 8623,
      "stores": 8624,
      "taut": 8625,
      "vial": 8626,
      "sep": 8627,
      "inkle": 8628,
      "theirs": 8629,
      "annah": 8630,
      "telepath": 8631,
      "grinding": 8632,
      "employees": 8633,
      "scrut": 8634,
      "phillip": 8635,
      "lis": 8636,
      "xico": 8637,
      "pained": 8638,
      "niko": 8639,
      "weakly": 8640,
      "popping": 8641,
      "jerking": 8642,
      "coats": 8643,
      "skip": 8644,
      "correctly": 8645,
      "paths": 8646,
      "fried": 8647,
      "civil": 8648,
      "rises": 8649,
      "motorcycle": 8650,
      "trau": 8651,
      "applied": 8652,
      "waf": 8653,
      "requested": 8654,
      "proto": 8655,
      "outstretched": 8656,
      "sneaking": 8657,
      "transp": 8658,
      "gratitude": 8659,
      "severe": 8660,
      "cooked": 8661,
      "pepper": 8662,
      "straining": 8663,
      "iel": 8664,
      "tissue": 8665,
      "document": 8666,
      "crust": 8667,
      "recognition": 8668,
      "stink": 8669,
      "welcomed": 8670,
      "dana": 8671,
      "dripped": 8672,
      "agan": 8673,
      "confin": 8674,
      "partly": 8675,
      "punish": 8676,
      "proven": 8677,
      "lucan": 8678,
      "oppo": 8679,
      "midst": 8680,
      "tattoos": 8681,
      "tripped": 8682,
      "sia": 8683,
      "rowan": 8684,
      "sweetie": 8685,
      "achieve": 8686,
      "lara": 8687,
      "negative": 8688,
      "perfection": 8689,
      "styx": 8690,
      "spaces": 8691,
      "lacey": 8692,
      "alu": 8693,
      "debris": 8694,
      "stron": 8695,
      "albert": 8696,
      "gel": 8697,
      "studies": 8698,
      "creation": 8699,
      "peak": 8700,
      "discard": 8701,
      "clair": 8702,
      "diego": 8703,
      "abiga": 8704,
      "clenching": 8705,
      "numerous": 8706,
      "adds": 8707,
      "muttering": 8708,
      "rays": 8709,
      "addressed": 8710,
      "melting": 8711,
      "essence": 8712,
      "elderly": 8713,
      "tricks": 8714,
      "huffed": 8715,
      "relaxing": 8716,
      "ugh": 8717,
      "gardens": 8718,
      "evol": 8719,
      "kindly": 8720,
      "alexia": 8721,
      "circular": 8722,
      "shold": 8723,
      "growth": 8724,
      "originally": 8725,
      "labor": 8726,
      "rebell": 8727,
      "passengers": 8728,
      "golf": 8729,
      "tide": 8730,
      "sab": 8731,
      "organized": 8732,
      "joan": 8733,
      "believes": 8734,
      "burnt": 8735,
      "grimly": 8736,
      "daring": 8737,
      "threshold": 8738,
      "marty": 8739,
      "anchor": 8740,
      "mexico": 8741,
      "escaping": 8742,
      "nightstand": 8743,
      "unfortunate": 8744,
      "interrog": 8745,
      "region": 8746,
      "swaying": 8747,
      "importance": 8748,
      "adri": 8749,
      "refu": 8750,
      "enced": 8751,
      "yu": 8752,
      "ultimate": 8753,
      "peer": 8754,
      "homework": 8755,
      "freaked": 8756,
      "kah": 8757,
      "joked": 8758,
      "santa": 8759,
      "attended": 8760,
      "convenient": 8761,
      "teenage": 8762,
      "myst": 8763,
      "obeyed": 8764,
      "jokes": 8765,
      "infer": 8766,
      "innocence": 8767,
      "illuminated": 8768,
      "asc": 8769,
      "rue": 8770,
      "amazement": 8771,
      "poking": 8772,
      "obje": 8773,
      "xie": 8774,
      "murmurs": 8775,
      "ronan": 8776,
      "interven": 8777,
      "tenance": 8778,
      "metall": 8779,
      "colour": 8780,
      "beef": 8781,
      "lair": 8782,
      "von": 8783,
      "ceived": 8784,
      "ughty": 8785,
      "orleans": 8786,
      "sham": 8787,
      "plays": 8788,
      "bible": 8789,
      "sleek": 8790,
      "arrangement": 8791,
      "rubs": 8792,
      "explains": 8793,
      "academy": 8794,
      "craig": 8795,
      "asion": 8796,
      "presu": 8797,
      "lush": 8798,
      "slips": 8799,
      "istent": 8800,
      "plague": 8801,
      "rav": 8802,
      "tices": 8803,
      "admired": 8804,
      "perfume": 8805,
      "discovery": 8806,
      "soda": 8807,
      "murderer": 8808,
      "pended": 8809,
      "tighten": 8810,
      "chers": 8811,
      "moaning": 8812,
      "brood": 8813,
      "earnest": 8814,
      "caden": 8815,
      "rosa": 8816,
      "outward": 8817,
      "lethal": 8818,
      "blings": 8819,
      "harbor": 8820,
      "desired": 8821,
      "accommo": 8822,
      "abigail": 8823,
      "relatively": 8824,
      "smar": 8825,
      "campa": 8826,
      "coordin": 8827,
      "patio": 8828,
      "uted": 8829,
      "mored": 8830,
      "flinch": 8831,
      "ponder": 8832,
      "msy": 8833,
      "console": 8834,
      "demo": 8835,
      "slur": 8836,
      "linda": 8837,
      "bubba": 8838,
      "uncomfortably": 8839,
      "nevertheless": 8840,
      "pierre": 8841,
      "kil": 8842,
      "tracing": 8843,
      "headlights": 8844,
      "batt": 8845,
      "ticed": 8846,
      "flare": 8847,
      "grove": 8848,
      "gerald": 8849,
      "vital": 8850,
      "fig": 8851,
      "janet": 8852,
      "absent": 8853,
      "rend": 8854,
      "cheerful": 8855,
      "determine": 8856,
      "fucked": 8857,
      "dj": 8858,
      "succeeded": 8859,
      "buckled": 8860,
      "debt": 8861,
      "jem": 8862,
      "inhabit": 8863,
      "vessel": 8864,
      "resumed": 8865,
      "kindness": 8866,
      "aliens": 8867,
      "banged": 8868,
      "robot": 8869,
      "ples": 8870,
      "phic": 8871,
      "computers": 8872,
      "nn": 8873,
      "gasps": 8874,
      "wealthy": 8875,
      "mblance": 8876,
      "maddy": 8877,
      "rec": 8878,
      "engines": 8879,
      "nancy": 8880,
      "aj": 8881,
      "christopher": 8882,
      "discomfort": 8883,
      "akes": 8884,
      "include": 8885,
      "sate": 8886,
      "cable": 8887,
      "wars": 8888,
      "ario": 8889,
      "divine": 8890,
      "stephanie": 8891,
      "cellar": 8892,
      "yield": 8893,
      "nikki": 8894,
      "eternal": 8895,
      "yells": 8896,
      "hailey": 8897,
      "krist": 8898,
      "writer": 8899,
      "laz": 8900,
      "luxury": 8901,
      "coy": 8902,
      "thrusting": 8903,
      "hunted": 8904,
      "austin": 8905,
      "abra": 8906,
      "elimin": 8907,
      "meals": 8908,
      "intact": 8909,
      "indicating": 8910,
      "veil": 8911,
      "lever": 8912,
      "reap": 8913,
      "scratching": 8914,
      "alized": 8915,
      "warily": 8916,
      "windshield": 8917,
      "examining": 8918,
      "ista": 8919,
      "dennis": 8920,
      "25": 8921,
      "halted": 8922,
      "hasnt": 8923,
      "vored": 8924,
      "fetch": 8925,
      "pang": 8926,
      "lili": 8927,
      "belongs": 8928,
      "inser": 8929,
      "dive": 8930,
      "ficial": 8931,
      "maxim": 8932,
      "descend": 8933,
      "displayed": 8934,
      "quire": 8935,
      "carmine": 8936,
      "demean": 8937,
      "goods": 8938,
      "afterwards": 8939,
      "slowing": 8940,
      "confession": 8941,
      "lincol": 8942,
      "escorted": 8943,
      "obse": 8944,
      "vag": 8945,
      "concluded": 8946,
      "acon": 8947,
      "indign": 8948,
      "copper": 8949,
      "plucked": 8950,
      "bice": 8951,
      "overly": 8952,
      "hopeless": 8953,
      "kier": 8954,
      "intrigued": 8955,
      "audible": 8956,
      "encouraged": 8957,
      "rielle": 8958,
      "fights": 8959,
      "generation": 8960,
      "kidnapped": 8961,
      "surgery": 8962,
      "thief": 8963,
      "ttes": 8964,
      "indication": 8965,
      "messenger": 8966,
      "sified": 8967,
      "ppled": 8968,
      "unison": 8969,
      "coughing": 8970,
      "lug": 8971,
      "conscience": 8972,
      "growling": 8973,
      "doo": 8974,
      "throws": 8975,
      "purchased": 8976,
      "condom": 8977,
      "ruins": 8978,
      "splashed": 8979,
      "snack": 8980,
      "neal": 8981,
      "chemical": 8982,
      "thee": 8983,
      "glove": 8984,
      "rr": 8985,
      "kened": 8986,
      "locate": 8987,
      "network": 8988,
      "playful": 8989,
      "respected": 8990,
      "ela": 8991,
      "grocery": 8992,
      "stairwell": 8993,
      "grasping": 8994,
      "motiv": 8995,
      "handy": 8996,
      "zac": 8997,
      "elders": 8998,
      "wraps": 8999,
      "iner": 9000,
      "tracted": 9001,
      "cela": 9002,
      "sweetly": 9003,
      "earn": 9004,
      "veness": 9005,
      "ceased": 9006,
      "documents": 9007,
      "graceful": 9008,
      "tasting": 9009,
      "coffin": 9010,
      "exposing": 9011,
      "attic": 9012,
      "prow": 9013,
      "loos": 9014,
      "glim": 9015,
      "limb": 9016,
      "nicely": 9017,
      "omy": 9018,
      "bitten": 9019,
      "unle": 9020,
      "noelle": 9021,
      "dab": 9022,
      "marsh": 9023,
      "nonetheless": 9024,
      "patterns": 9025,
      "poster": 9026,
      "towers": 9027,
      "metri": 9028,
      "snaps": 9029,
      "passionate": 9030,
      "arrangements": 9031,
      "dorm": 9032,
      "layers": 9033,
      "remarkable": 9034,
      "coke": 9035,
      "politics": 9036,
      "nurses": 9037,
      "doug": 9038,
      "robo": 9039,
      "cradled": 9040,
      "flirting": 9041,
      "defi": 9042,
      "challenged": 9043,
      "mace": 9044,
      "arer": 9045,
      "bared": 9046,
      "interfe": 9047,
      "tang": 9048,
      "harley": 9049,
      "brist": 9050,
      "rattle": 9051,
      "toys": 9052,
      "ively": 9053,
      "snakes": 9054,
      "coins": 9055,
      "cement": 9056,
      "flet": 9057,
      "rev": 9058,
      "metallic": 9059,
      "warlord": 9060,
      "itha": 9061,
      "deepened": 9062,
      "photographs": 9063,
      "sors": 9064,
      "troy": 9065,
      "parad": 9066,
      "strategy": 9067,
      "float": 9068,
      "implic": 9069,
      "britt": 9070,
      "cora": 9071,
      "sloane": 9072,
      "lamps": 9073,
      "launch": 9074,
      "atl": 9075,
      "temer": 9076,
      "burg": 9077,
      "forbidden": 9078,
      "regretted": 9079,
      "rhe": 9080,
      "sentin": 9081,
      "assess": 9082,
      "inquis": 9083,
      "200": 9084,
      "practiced": 9085,
      "overnight": 9086,
      "muddy": 9087,
      "scooted": 9088,
      "erotic": 9089,
      "apt": 9090,
      "banging": 9091,
      "classroom": 9092,
      "fication": 9093,
      "shimmering": 9094,
      "concealed": 9095,
      "lincoln": 9096,
      "accurate": 9097,
      "headquarters": 9098,
      "characters": 9099,
      "angeli": 9100,
      "ini": 9101,
      "slapping": 9102,
      "favour": 9103,
      "kini": 9104,
      "bian": 9105,
      "rell": 9106,
      "satin": 9107,
      "accomplish": 9108,
      "ctors": 9109,
      "outline": 9110,
      "destroying": 9111,
      "investigate": 9112,
      "glas": 9113,
      "caro": 9114,
      "inven": 9115,
      "loa": 9116,
      "azar": 9117,
      "thea": 9118,
      "irish": 9119,
      "quali": 9120,
      "enda": 9121,
      "retire": 9122,
      "traditional": 9123,
      "anticipated": 9124,
      "ffi": 9125,
      "horns": 9126,
      "conditions": 9127,
      "lash": 9128,
      "twenti": 9129,
      "neared": 9130,
      "dismay": 9131,
      "vain": 9132,
      "silhou": 9133,
      "fergus": 9134,
      "fati": 9135,
      "environment": 9136,
      "sauce": 9137,
      "moss": 9138,
      "interrupt": 9139,
      "effective": 9140,
      "caine": 9141,
      "playfully": 9142,
      "perspe": 9143,
      "jut": 9144,
      "jaws": 9145,
      "woken": 9146,
      "anese": 9147,
      "streaked": 9148,
      "inar": 9149,
      "pulsing": 9150,
      "deserves": 9151,
      "padded": 9152,
      "simultaneously": 9153,
      "bait": 9154,
      "reid": 9155,
      "hudson": 9156,
      "rae": 9157,
      "sincere": 9158,
      "indif": 9159,
      "gleam": 9160,
      "heaving": 9161,
      "chatting": 9162,
      "loosened": 9163,
      "viously": 9164,
      "particip": 9165,
      "gazes": 9166,
      "certainty": 9167,
      "chemist": 9168,
      "needles": 9169,
      "marine": 9170,
      "urgency": 9171,
      "overheard": 9172,
      "integr": 9173,
      "vyn": 9174,
      "rival": 9175,
      "evident": 9176,
      "straps": 9177,
      "proced": 9178,
      "bern": 9179,
      "engagement": 9180,
      "retired": 9181,
      "reflex": 9182,
      "tories": 9183,
      "maze": 9184,
      "campaign": 9185,
      "terminal": 9186,
      "23": 9187,
      "picnic": 9188,
      "tant": 9189,
      "tailed": 9190,
      "cooler": 9191,
      "tabitha": 9192,
      "anxiously": 9193,
      "flaw": 9194,
      "hyp": 9195,
      "receiving": 9196,
      "histori": 9197,
      "folder": 9198,
      "administ": 9199,
      "listed": 9200,
      "masculine": 9201,
      "bax": 9202,
      "bulk": 9203,
      "carrie": 9204,
      "fes": 9205,
      "printed": 9206,
      "mimi": 9207,
      "stumble": 9208,
      "drives": 9209,
      "squealed": 9210,
      "manners": 9211,
      "beats": 9212,
      "mutter": 9213,
      "ezio": 9214,
      "balanced": 9215,
      "visitor": 9216,
      "fry": 9217,
      "vengeance": 9218,
      "chambers": 9219,
      "chuckles": 9220,
      "compart": 9221,
      "portra": 9222,
      "neutral": 9223,
      "array": 9224,
      "emotionally": 9225,
      "abe": 9226,
      "vines": 9227,
      "demonstr": 9228,
      "responding": 9229,
      "opponent": 9230,
      "therapy": 9231,
      "burnett": 9232,
      "shack": 9233,
      "pumped": 9234,
      "lai": 9235,
      "bitterly": 9236,
      "visibly": 9237,
      "tuck": 9238,
      "yank": 9239,
      "eman": 9240,
      "georgie": 9241,
      "oven": 9242,
      "kerchief": 9243,
      "wyatt": 9244,
      "posture": 9245,
      "advised": 9246,
      "elf": 9247,
      "promptly": 9248,
      "fortress": 9249,
      "onds": 9250,
      "announ": 9251,
      "doyle": 9252,
      "limo": 9253,
      "automatic": 9254,
      "swiped": 9255,
      "acceptable": 9256,
      "appeal": 9257,
      "leton": 9258,
      "bearable": 9259,
      "uous": 9260,
      "retorted": 9261,
      "suspended": 9262,
      "dip": 9263,
      "roommate": 9264,
      "reu": 9265,
      "unner": 9266,
      "dimp": 9267,
      "religion": 9268,
      "darcy": 9269,
      "bundle": 9270,
      "impris": 9271,
      "temeraire": 9272,
      "cupping": 9273,
      "whimpered": 9274,
      "poet": 9275,
      "thirsty": 9276,
      "abdomen": 9277,
      "presents": 9278,
      "fallon": 9279,
      "behave": 9280,
      "vory": 9281,
      "hush": 9282,
      "veronica": 9283,
      "healer": 9284,
      "barry": 9285,
      "drawers": 9286,
      "transformed": 9287,
      "avi": 9288,
      "menacing": 9289,
      "accomplished": 9290,
      "smer": 9291,
      "festi": 9292,
      "plum": 9293,
      "cke": 9294,
      "founded": 9295,
      "fills": 9296,
      "dren": 9297,
      "florida": 9298,
      "texted": 9299,
      "killers": 9300,
      "crowds": 9301,
      "wives": 9302,
      "mildly": 9303,
      "rade": 9304,
      "tempting": 9305,
      "excitedly": 9306,
      "swelled": 9307,
      "rons": 9308,
      "raked": 9309,
      "mistak": 9310,
      "dancer": 9311,
      "scheduled": 9312,
      "clawed": 9313,
      "aroused": 9314,
      "classic": 9315,
      "tourists": 9316,
      "perse": 9317,
      "seas": 9318,
      "regan": 9319,
      "communicate": 9320,
      "shannon": 9321,
      "hushed": 9322,
      "cafeteria": 9323,
      "chell": 9324,
      "dessert": 9325,
      "het": 9326,
      "rif": 9327,
      "blamed": 9328,
      "welcoming": 9329,
      "teams": 9330,
      "mune": 9331,
      "guardians": 9332,
      "punching": 9333,
      "dimension": 9334,
      "encouraging": 9335,
      "deposit": 9336,
      "lass": 9337,
      "scientists": 9338,
      "lifeless": 9339,
      "unmistak": 9340,
      "tingling": 9341,
      "bellowed": 9342,
      "walter": 9343,
      "underworld": 9344,
      "july": 9345,
      "caves": 9346,
      "thia": 9347,
      "clarity": 9348,
      "gemma": 9349,
      "snif": 9350,
      "phis": 9351,
      "performed": 9352,
      "flutter": 9353,
      "40": 9354,
      "aircraft": 9355,
      "critical": 9356,
      "bracelet": 9357,
      "solar": 9358,
      "kendall": 9359,
      "techni": 9360,
      "errand": 9361,
      "shuttle": 9362,
      "nay": 9363,
      "unseen": 9364,
      "clinic": 9365,
      "majority": 9366,
      "disguise": 9367,
      "planes": 9368,
      "reins": 9369,
      "shields": 9370,
      "mikha": 9371,
      "augh": 9372,
      "frequently": 9373,
      "smashwords": 9374,
      "descending": 9375,
[...]
